bc3acf74
bd25a145
3d35aea3
3d3c44bf
3d632b13
bcce618d
bcf09fa5
bd367d35
3d168406
bc4c2939
3c8cc78f
bccfdd23
3d4e1933
bd0aafbc
3b8b70e2
3d418c5d
3d6f9229
bceb3bb8
bd5a9110
bd045565
bc75019f
bce48c72
bd3a68b2
3cffbacb
3c8765ba
3d707f24
bb2a6ed4
bc0dc916
bd440f24
bd389614
3c4f95d5
3d3252ce
bd57e34c
3c545e92
3d2d1d04
3b038129
3c8969a1
bcf355ce
3d46dd6a
bd4636b1
bd6337a8
3d4011d3
bcd8ab93
3ccc0bdd
3c263f9a
3d76ceff
3b8065ec
bc7eb4a6
3caabef0
3c396af0
3d6ed352
3be66e5f
3bc72acc
bc83f4ed
bd219978
3d87c287
3d0589ad
3c3becab
bd01fb83
bb75a60a
3d0af0bf
3c843a21
39e9482e
bcfbdcf0
bbf90895
bc3b9496
3d09320e
bd0aa865
3d322e1b
bd5b5c7d
bd570c56
3d0ccbc0
3cbf76a3
bc4c1872
3cc00325
bce7d34e
3d7226c4
bd246499
bcb2b778
bc13293d
b99ae950
bd253da7
3d0ccab4
3c883559
3ca89fc7
3d761459
bb59b28e
bcc4d877
3d5d95dd
3c5712a1
bc212f90
bd0bed74
3c8b4e12
3d28a82a
bcf7f499
3d811772
3d3395c4
3d0c38f3
3d3efbf4
3d600f34
bcf9f44d
bbeb6a47
3d5bdb5e
3d1b2e5a
bd5eeaa7
bbe91786
b9a4919a
bc91ff71
bd26edab
3d194f27
3d56d4c3
bd0913a5
bc0db41e
3b6e9722
bd19ff50
bd0cab3f
bc0fc936
3d281776
bd0abf77
3c8db270
3ce1a826
bc706706
3d864021
bcb16a05
3d0c5543
bd4b6b6e
bc9a2835
3ccad14a
bd357e67
3c549d7c
bc85b39e
3d508f65
3d5c4007
3ca57215
3d54c016
bc9ab29e
bbb44af6
bd55cfab
3d6a582e
b98e7f09
3d4100e7
3cd069a5
bc83e857
bcf0520d
bd5182aa
3d0dbf05
bbd5743b
3c0c10af
3d6f8056
bc0fe0b3
bc5aa92e
bd0ec52a
3d1f3b64
3be34839
3b958b17
3d6f1562
3d6e557e
3d321816
bcf4b407
3d0b05b8
3d780347
bd05729b
bb8d1e61
3d4dcec0
bd05ef63
bd11ec92
bd5a1230
3b88adb9
bbcd6ddc
bd63e4ac
bc2ae6c9
3d24ebdd
3ad87ddb
bc8c282c
3d78c543
3d6a3487
3d4ced4e
3d7471f8
3b5bdc34
bd04790c
3c9e5c0c
bd1fd588
bd22d1f2
bc834092
b8a7a23d
3d3d512f
3cfdef85
bd4f3dc0
bcdaceee
3d1693c0
3d64a7b5
3cf6e1df
bc841cc5
bc2d362f
bd231f8a
bd68e3ef
3d2a0cae
bcbbb40b
bd61aa3f
bcf65775
bc00dbc8
bd546c33
bd31d3ed
3d66aec0
3c69c886
3d2bfca8
bc394d94
bb9bdeee
3cd9ee89
bbffe2a4
3d4013ec
bc0b25ce
3d0ccee6
bd53eb3a
bd441ede
3d50bb6f
bc0518d9
3d31d2e1
bd18b60f
bc9e1d21
3c412f0a
bd37fae3
3d1b90eb
3d4f2496
3d5faca3
bd3dc37a
3d145c79
3d4d10f5
3b1ed03a
3c12e763
3d2f8594
bc934acb
bd42363b
bc5eefe5
bd1bd1ee
3c6e30cb
bd3446fa
3b71c681
3d892d56
ba8612d4
3d7662fe
bc42acb8
bcac96cc
bb8a420e
bd154a80
3d3d6734
bd380cb7
3c371759
bd5185cf
bd34e981
3af96405
3d61c9b4
3d5ca9ef
bc37a5f4
bc06f2ce
3b9e1e64
baf70ec0
3d3de508
bb19eaf8
bd1858bc
3d671cda
3cec7219
bd7009b3
bc796e16
bcc5846f
bd186fce
3cf15400
bbf32958
3c8f10aa
bc1baddb
bd54c33b
bcee5040
bbd616f8
bcbb3c82
bd185272
3c8cd63d
bd19c27f
bccfc3f8
bcca1273
3d1cf67b
3c17e0c7
3c20cead
3c098c71
3acb1bf3
bcf13272
bd44c48b
bc8da5db
3d364cf9
bcdf43c8
3c0e5599
ba5a05c5
bd0bfd2f
3c9e1f3a
3cb68cef
bc998288
3cfd2418
bd042c80
3d6e685e
3ca7ded7
bbd07f09
bbe4473d
bc801f75
bd07fcb9
3d6fc47e
3d3d9fd3
3c5d3fe2
3cce5711
3d398634
bd44dca9
3a804cc1
3b183f27
bd109d06
3d47abfc
bca730c6
bd4b49e0
3d2a337b
3bfcf081
3d1c25d0
ba141678
bd042fa5
bd5c3dee
3d744806
bc9b4dcf
bd317050
3c2c9afe
bd4857f3
bd1286b6
3b2e982e
3d2b92c0
bd38f798
bb40aeb1
bd2dadb8
bd685db7
3d756217
bc653650
3d23c750
bd370cdd
bd3b634e
3d247bab
3d3e468d
bca91106
3afa3ac4
3d0f3344
3d26698c
3b656c00
3bebd3f9
bcf2ffd2
3c3f7f06
3d2a7ce1
3d223290
bcf5a31a
bc68f29d
bb45832c
3c77f8cb
bcaed139
bc065519
bb05f9aa
3d7fe197
bbd259d5
bc912fd3
3cc7da1f
bd607d4e
bc92923e
3d05aa2e
bcc241c4
bc3a0621
bc8fb00c
3b424d17
3c2465a5
3c82e87d
3cc2bf98
bc8e38a8
bcf04791
bcaf72b4
3d27f1b7
3c224aae
3d216723
ba1398fa
bd4d7cf6
3d7c2331
3c87075b
bc21bfd9
3c95b9a6
3d19695e
3d4d38ce
3d4c9d9d
3d0d3bf3
3d46ab15
bd3e4bcb
bb684ad8
bd1d041d
3cee221d
3b337a15
3c252264
bd0240b8
3d595ee1
bc9098d4
3ced7a57
bbb2887e
3c084b93
bd4e4218
bc1a1265
bc3dcad1
bccb599b
bd153587
3ada09cc
3c10a428
3d666235
bce80171
bd6d9168
bd52e2fc
bce25a68
3d6836eb
3d27d029
bd141744
bc82f0e1
bd6799a2
3d12ef91
3c95aaf8
bcd6d7e9
bd7fe2a4
bcd4f377
3cda964f
bc143618
bd67a52b
bc4d1c7e
3c14c081
3cb4a44c
bbf08a41
bcc56712
3d529670
3c1c95cd
3d183409
3cdc93ea
bcdc26dd
bcd3ae68
bd25d181
bc887ebf
3d3e132b
bcb1af3a
bd39cb68
bcaead92
3d012cf1
bcaa9d62
3d487011
bd414728
3cc9e01e
bcea593a
bd2bcc6c
3d7226c4
bd07607c
3c82fd76
bca62457
bca1f8e4
3d669f06
bca2d949
3d672431
bd0eb13e
bc0e0ff9
bcd22856
3d3862b2
bbdfd842
bd0def41
bcb01217
bce05ccd
bd08d9f9
3cc69510
bc0121d4
3a9e774f
3d686b59
ba970c21
bd4e0daa
3d4b89d7
3d173eab
bd05e0b5
bb13a209
3d1803cd
bc8815e4
bd0476f3
bd08aefb
bd4f16f4
3d68c79f
bd0e8427
3caf1ed1
3cdd1809
badf520b
bcbc6a7f
bd784dba
bb880ca9
3d1554fc
bd36976c
3cf3a366
bd61693c
bc49f72f
bd384dba
3d5de9c0
bd1a9c99
3bc59edb
bc99c172
bc87d4e1
3c05927c
bbe2cb3c
3d292924
3d451655
3d129889
ba906390
3d3a0514
bcd347a6
3d32788e
3bf9b8be
bbfbb293
bd065f96
bd11bf7b
3d64302b
bce30015
bcdc93ea
bd2e4c0e
bd2e4192
bd0f00ef
bc92d341
bc9ef73c
bc643676
bce2ac32
3c939219
3c9d8a55
3ca21859
3d3dc055
bd2f049b
bc171484
3d52f3c3
bd2f4e01
3c2e07e6
bcacd9e8
bcfef178
bc0aae44
3d39c305
3c8b0d0f
3cca2db6
3d14b59a
bd0a2caa
bd496feb
3d00420f
3d43fd50
bcf3a14d
3d04ae86
3d43c9ef
3d2b239a
3d059fb2
bc4e5b42
3d521bc1
3d3c0b13
bd4c2c5e
3d49656f
bd46f588
3b0c6add
bd14866a
bc28c155
3d2e88df
bc19905f
bcd89481
bc7f9f88
bcce618d
3c9d0a67
3c0af160
3b10928a
bcb94749
3cd23f68
bce6ba49
bc35cbff
bcaf7f4a
3d211ec9
bc8baa58
3d423c86
bb62c633
3be61c29
3d418612
3ccadff8
bcaa36a0
3d3f5a53
bb2e9681
bd470436
3d6a53fc
bcfe0264
bd1ee88e
bcdb9410
3d4c3d25
3d221427
bcde7642
bcd99cbf
bc9b1d93
3d6602c9
bd053b08
bd40bdcb
bd15db34
bd299d88
3d3bc3c6
3d553693
3cdc8323
bcdfb507
3ce7d34e
3d665e03
3c58f92b
bc032980
bc6ac42f
3d8a5d6c
3ccf4624
3bc4b755
3cb530cf
bbad6cb5
bd3e74b0
bc1f8bb7
bd04912a
3d03d146
bcbe8790
bc0a0b1c
3d6f2303
3c6fcbd5
39d25edd
bc0dcf61
bcff5e85
bb9e0539
bcbd33d3
bd305964
bd2d4a1b
ba70b763
3d55d702
3cb08356
3d45e3da
3d7ef8cf
3d50de09
3cb7c350
bca3d923
b8e09023
bbd21ff3
bd6c80c7
3d02b628
3b6befa8
3c25119d
3cabcf92
3d497a68
3d484407
bd4332f0
3ccefcbd
bbbe4c01
3c637586
3c1df7cd
bd52b7fe
3c136171
3c018612
bce8e1d6
3cb671ac
3bafab54
bd5baf53
3d43e857
3c9a500d
bd58b1dd
bc9014b6
3cd8255b
3c4e9a2c
bd61eb42
bcddebd9
bd3649d4
bc8df7a5
3d4c0ad0
3d3a4f87
bc02e1c7
bd342246
bc8c197e
3c6ff5c7
bd2224ee
bd1800a8
bd0305d9
bd085f4a
3bd39ccb
3cad362f
3d563886
3c1362b3
bbe2541e
bc2e924f
bd22f380
3cdca4b1
bcf65775
bd4aba38
3d85553f
3d643569
bcaa77a3
bc67c4a0
bd3312b2
3cef2a5a
bc89aed5
3d355150
3d4b1141
3c8c8cd6
bd3d08d5
3d83a53c
bd35e95b
3d333a8a
3cef0cfe
3a572393
bcb85a4f
bb678b95
bcb4202e
bd0bd018
3cedd053
bc23d054
bd5eb95e
3b230553
bc61ef74
bb4d042a
bd64473d
b97edb3d
bc795d4f
3aaec8d6
3b3b956d
bb00a0a4
bd3b1184
3d2b6d01
bcc80e8d
bd5a3d2e
bccc814d
3c3c5155
3bba84cc
3d61f299
3d6c3eb8
bc9be8ff
3d399807
bd2dfd69
bd03d039
bd0c9646
bc404428
3d7aecd0
bb54dab8
3caf6e83
3d20aa65
bd4cdc87
3c9bf37c
3d836199
3b6f3ee8
bc9c38b0
3cd93a2e
3d070da6
3d4ebbba
bd0bfd2f
bd4c6b48
3ca56bca
bd8371da
3c8ef135
3d10624e
bd34ce3e
3d88a3f9
3d8ff9f8
bca34eba
3cd7c4e3
bd44b2b7
bccf5f4e
3d1ccfaf
bc0b2a6b
3c7a5094
3d655193
3d41c821
3c141e30
3d352b91
bca580c3
bbf588ae
bce9b7bf
bd2414e8
3c0134b3
bc3c0a07
3d3824d5
bd6a8651
3c43dab6
bd610f0f
bd320d99
bd6e642c
bd51f81a
bb2ffbdc
bd297072
3cddd4c7
3d1491f3
b9960667
b9b12176
3ca76534
3c408fa8
3d0c197e
bd20589b
3d1988d3
bd0c404a
bd498d47
3cb91926
bc205ff2
3ce60c39
3d2eeb70
bcf0a1be
3d367d35
3d34b0e2
3cfd45a6
3cd362e9
bd464ba9
3d28fe26
3d3d694d
bcbaecd0
baad57bc
3d091f2e
bd354d1f
bbdea38f
bd0a43bb
3d1116a9
bd23400c
bd39cd81
bd117508
bc879e5a
3b3d24b9
bbd4bc85
3d6fc372
bd022ab2
bc3a0621
bcf52b91
bd0a6762
3c1ecfcf
bd614270
3d19cbef
bbf226f9
bcab1705
3c2c18f8
bd69131f
bcb111f1
3cf55150
bd1a6f82
3cfc06e2
3cf85f8d
bc321c47
3cba68b2
3b1b5c11
3930d7a4
bd0245f6
bd656ef0
3d4c5543
3c823e9f
3ce91ea8
3d1f2991
3c7bc5df
3d07fcb9
3bd7b12c
bd417ebb
bd47bdcf
3b361c87
bc1b668e
3b9f4179
bca8a82a
3c8b0d0f
3d0f10aa
3b6e2004
bd78d717
bcabc947
3d4d3e0c
bd62ccb4
bd29b7bf
3ca44c7b
bd66698c
bcc73472
3ce3022e
3ce0d888
3d2d2568
3cad6ece
3c62a3cf
bd6e2da5
bc2f3e47
3d4244e9
bc1e13e7
3ce878fb
3d25a251
3d60dbad
bca57215
3d3543af
bc30f27c
ba0f42ff
bd044178
bd47db2b
bd6f5caf
3c3badc1
3d3f865d
bcf7878b
3bd386fb
bd2af46b
bd0a1598
3d5a63fa
bd068a93
3c30a6fc
bcd56085
3d5de7a7
3d5e1f3a
b9d586db
3d73ebc0
3c97bfa5
bd119371
bd201abd
bd2e83a1
3cf98b72
bd4fcd68
bc8dc982
3d151c5c
3d0f8940
bca977c9
bd10d174
bc9cb46c
3d33b320
3c33b320
bd3b29a2
bb4798b0
3d2a886a
3d1c193b
bd0e67d7
3d691106
3d1d1915
bd0d1a65
3d3446fa
3b42c288
3d1f255f
3cca0c28
3cba237d
3d1eca25
3cdcd91f
bd56fa83
bcd753a4
bc5816ad
3c8f062d
3c156acb
3d47abfc
ba02b882
3ccbe836
bd43e857
bbdcfbef
3cc6c333
3cbc0c20
3d125cc4
bbe898db
3d12d341
3d0d39da
bd60407d
bb98b2ea
3c4ca70d
bd038d1e
bc8333fd
bcf4d595
3d355de6
3d53be23
bcc35265
bd1804da
bbc64c80
3d1c9b41
bc23e39f
bca78af4
3ca88052
bcf646ae
3c03e715
bbadbeeb
bd23d923
bd3fd2e9
bb8f5dd6
bc4ac083
bd5a38fc
3c106898
bd3315d7
3d62f9ca
bcdd56f3
3d1729b3
3d620ddc
bcabf120
bd5dce7d
3c051ffa
3d364bec
bd173c92
3c3e7afa
3ba23f5b
bd0a9cdc
3b845712
3c52ed78
3d1f7e80
3d589efe
bc84f095
3c57d7c3
3d162068
3d39591d
bd3749ae
bd681883
3c2975b0
3cce874d
3d0e7147
bd15c63b
3d09dae0
3d64e8b8
bd0219eb
3b7f21b4
3c5512ec
bd0de2ac
3d2abcd8
bd2a27f2
3d1538ac
bb0dcb2f
3cf88766
bc05af6c
bd214489
bad2ebcb
bd154867
3d43e857
3d3ff79d
3abb53ff
3c99f5e0
3d804641
3d263e8e
bd685554
bcd753a4
bd607b35
3ca923e6
3d2440f2
bcefed63
bd0b599b
bcfa9c13
bd14bf0a
3d72e8c0
3b704b57
bd62d0e5
3b63ef28
bc93037d
3d6696a2
3d11a544
bd2f9336
3c380a9e
3a318574
3ca517e7
3d36555c
bc955715
bd54f9c2
3d0c9108
bd3868fd
bd488e7a
3cf63c32
3d27e415
bd549731
bce38002
bc922fad
3d61ac58
3d3badc1
3c5640ea
bd28bc17
3d08de2b
3d31e6cd
bd2df1e1
bd3b14a9
3d1a059a
3d0435f0
3bc61e5d
bcfb2032
bd1fba45
3d6b7baf
bd08e369
bcf92afa
bd160e95
bd2006d1
3cc4fa05
bd618ce3
3cb5f80a
bd3484d7
bd17481b
bd1ada77
bcd245b3
3cc6887b
3d045565
bd22dc6e
bceb4a66
3c8de093
3d54fdf4
bc8c23fb
3d05e0b5
bd0a6330
bc2d57bc
3d28294a
3cb2e7b4
bce43676
3bc03f20
bd30ed3e
3d3459da
bcc91d15
3d51fc4c
3d329c34
bd2c6046
3cf26070
3d5efa61
3d557471
bd2af252
3cd4b05b
3ce26916
3b5fb359
bc55cfab
3d389d6b
3d019b0b
3c054188
3ce90796
bbf26d70
bb9997ec
3c323572
3d323ee2
bcab68cf
bd0a43bb
bb86a8fc
3d3cfe58
bd39bed3
3d5c0011
bcaf661f
bd18409e
bd417657
3b1d967e
3d46d0d5
bd2f954f
bd0c1334
bd53e1ca
3be0157f
3d136a40
3d23de61
bc90cd42
3d19a30a
3cc15d2d
bd4c2720
bd3c6434
3d4b673c
3b7e2103
3b275f55
3d67caea
bcee4192
bbc66b8a
bd3a8d65
bd55cb79
3d223183
3cd6f976
bce822ff
3c54cb9f
3cd931ca
3c2dfb50
3d511be7
3d333db0
bca0d131
bd18bd66
3c6daa93
3d3620ef
bd3ff79d
3cc36113
bcd0e347
3ce2a3cf
bc8856e7
bcc22036
bbb90f81
bd76e3f8
bb33969b
b9ab1b4c
bd5d2f1b
3d4aba38
3d02d6aa
bd48626f
badae742
3ca45b29
bc5c8323
3d13f6c2
3c96d2aa
bd0e7ab7
bbb2e748
bca018a4
3c86a099
bc7e8ee7
3cb36156
bcee2435
3c0b7798
bbb4d204
bd38f68c
3d2ae6c9
3c64b87c
3c07e67e
bcf0867b
3d17eed4
3cdb4aa9
3bdc0a57
3d26ec9e
bd0b9453
3d0168b6
bc8a979e
3d0d79d1
bc6542e5
bc8ebee0
3d3b8801
3c3cdff0
3d60cbf3
bd4ded29
bcf1fddf
3c815c21
3d6a7ce1
bd1bbadc
3c120d49
3cd4bf0a
3c8c0f02
bd0712e4
3b25ba39
bbcec41e
bd554328
bca324c8
3d2072d2
3c8b178b
bd5ad107
bc11fc16
bcb00368
3d45436c
3d603c4b
3c994185
bcd4866a
bd173861
3c14cf9b
b8bb3814
3d439581
bc8f062d
3d68c79f
3ba9c7e5
3d5dc726
bc96f651
bd30a5f0
3ceab14f
3d447a18
bcca3a4b
bc218a94
3d510f52
3d30728f
bc1acde2
bccc942d
3c77164c
ba2d36da
bd7b70ef
bcc36fc1
bd0d35a8
3bf25ca9
bcf709b7
ba881791
3bc5535c
3aebb194
bd78ec10
bcd566cf
bd599cbf
3cd4e2b0
bc3213e4
3d5a7b0b
bbb4e981
3d374bc7
bd61e710
bca86d72
bc7034b1
bd694bbe
3d44fb12
3d2132b5
3d4404a7
3d6e7818
bcc3b0c4
bc411e43
3c801f75
3c0f8fc0
bd1053a0
bc925786
3d26f3f5
bd2936c6
3d67f5e8
3cd4f590
3a9b0b8a
3b245eef
bd192a73
3d297397
3c1f06c1
bd570718
bd6cb31c
bc017332
3d25bfad
bd6df82b
bd16238e
3d76d656
3d3c85c2
bd3e8cce
3d27aa69
bcd425f2
3d09adc9
bd0476f3
bd2a3ad2
bcc158fb
3d1fe868
3d0e4da1
3d0303c0
3d226916
bd0a105a
3d7381d8
bcd44dcb
bc7a5d29
3c3790fb
3d3c86cf
bc2ac53b
3d087a8d
3d439abf
3d515055
bcecdf26
bc8841ee
3d5014b6
3c61d218
3c9d6063
b7e3b9bd
bd76c26a
bc93f291
3c4f56eb
3d2bd902
bc8198f2
bcb0b9dc
3cb925bb
bd0cc682
bc804966
bc86fac6
3ce21102
3d3c5586
bb3c5b66
bd5dd4c7
3c0453b7
3b83bb0b
3bf4ae93
3d433f85
3d49c1b5
bd69db66
3d30b179
3ceb8d82
3bf1701a
3d44a622
bd325c3e
3d0b007a
3cdf02c5
3d4667f9
bcfd156a
3d2a38b9
bc75d356
3d6cfc83
bd460aa6
3d609dd0
bcc6cb96
3d6b063e
bcad7f95
3c12dc10
bd26e760
3caa411c
bcee7818
bd19b6f6
3c7b2aae
3d1130e0
bd4bcbe6
3d0fe048
3ca849cb
bcb69b9d
bd3864cb
bd10795f
3d115bdd
3ca921cd
3cf8cc9a
3d3f0132
3d408638
bc39cb68
bd47c30d
3cc00757
3cbe61d0
bd36598e
3c436977
3d08a372
3d2e9143
bd09c800
bc78f041
bc67685a
3cc6cb96
bbe6461b
bd463ae2
3d64c0df
bcfae579
3d209cc3
3b355ef2
3c1d51b5
bd346562
bd4943e1
3b4467a3
3d6b97ff
3d535a86
bcc16bdb
bd3a0408
3cf53c58
3ca9e2bd
bd08882f
bd4620ab
bc759cd0
3b6d9671
bd3a3ca7
bd4662bb
bd0065b6
3d007464
3d56f75e
3cbec248
3cdc486b
3b02cda5
bcf7707a
bd1b76b4
3cd7928e
ba974887
bd01b329
3b6f8203
3d1918a0
bd26490a
3cccc89b
bc7fc979
3c9057d1
3c2ba387
bd31df76
3caeea64
bd64a7b5
3d40474e
bbf691c2
3c849236
3c916441
3d13b29a
bd0f67b2
3d38cda7
3ca400fc
bd4d4dc6
3b9776aa
bcce1e71
3d2a5d6c
bc66ddf0
bd530271
bc2619db
3cd7fb6a
bcbca969
3c28155d
3c7a3fcd
3c9e8c48
bce019b1
3d7e6c4c
3c95ee13
3bd7b12c
3ce79ee0
bd17dd01
bd38d3f2
3cf8f25a
bd59c6b0
3a9c3987
bd6c386d
3ce35a42
3d2a454e
bccdb164
3d15bab2
3d688484
bb7ca42b
3bd3fe19
3d5e19fc
bd1e8e61
bc8ad256
3d4346dc
bd377e1c
bc9bd61f
bc97c808
bd090d5a
3ccbad7d
3d20c7c1
3d6acd9f
bd1886e0
3cc0a287
3cef0069
3ce43aa8
bceff9f8
3d0cb9ed
3d795d4f
3d34623d
bcae6645
3d0f55de
3d15b574
bd0da5db
bc54067d
3c96f21f
bc6cb31c
bd46a4ca
3d051c9f
3d819b0b
3c262aa2
bced5497
3c428f5c
bcb0d0ee
bb996745
bd125786
bcd8f4f9
bc9081c3
bcdb91f7
bd0e4da1
3cd2439a
bc54738a
3b629a94
bc3b59de
bcec00da
3d2ab14f
3d3e846a
bc02ae9c
3d1a059a
3c1f5607
bcd96638
bc4fb763
bd452d66
3c3c5dea
bc9372a4
bac33eaf
3ca71151
3d5fadb0
3c354e2b
bd309fa5
3d1f5ad9
3cd332ad
bd4a2db6
3bab7dc8
bd00767d
3d710881
bca9ae4f
bd6004b8
bc1fc456
bccf91a3
bd5492ff
3caf4cf5
3bb159aa
bd4111ae
3cc0639d
bbd343df
3d217b0f
bc195465
bd94bc6a
bd2fe825
bd725700
bce7a744
bcfbcc29
3c041f49
bd1f090f
bd5fbf83
bd03d790
bd5f548f
bd5235f8
3caf5558
3d0c8abd
bd227393
3d4af816
3d03686a
3d3301eb
3ce8f29d
bd4419a0
3d805575
3cc0181e
3ca80f13
bd01fc8f
3d5a0382
bc0ea25a
3d4c4ac7
3d4fd8f1
3d0f8f8a
3ca50f84
bc8f53c5
3d3878b8
bbb48685
3d3fc654
bd065a57
bd2ca362
bd25edd0
3c56e8b0
3d5efa61
bc791a33
3d08beb6
3d4a02b8
3c6d527e
bd63fee3
bca5870e
bcddd4c7
bcde2ac3
3baa9f7b
bc1b753c
3cef1bac
3c133490
3d0574b4
3c86748e
3d13aa37
3bd8226b
bd14e1a4
bd295a6c
bb503bed
bd58a86d
3c71172f
3afb183a
bc32aae3
bd22ad3f
3c50edc4
bab1d6a7
bcf93144
bb3ed08b
bd038d1e
3cf8e9f7
3d0b19a4
bcfe0ce1
bbbdd0b1
3d365343
3d2f33ca
3d349386
bd0f67b2
3bfd95c2
bc35f1bf
bd117f84
bd2c16df
3d2faa47
3d291750
3d003ab8
3d1e774f
3ca4c61e
3bdaec4a
bc1b55c7
bca9b49a
bcae7b3e
3cd5885d
bbd6692e
bcf0b06c
bd037c57
3d1a3c21
bd653eb4
bb12146a
bc6e392e
bc7c1df3
bc606d94
bc00a110
bd03d9a9
3d0e6299
bc93037d
3d5f0d41
bc86e19c
3d05f5ae
bc15f74e
bd0b5fe5
bc11431e
3d59d346
3c25accd
bbf889ea
3cc68230
bca0d77b
bd2da76e
bd2dbc66
3d2f0ae5
bd033d6c
3d4ef241
3c0b0e51
bd662ed3
bd083665
3d815db3
bd4c9d9d
3d47d4e1
bcc86057
3d1caf2d
bd44c059
bcc8a9bd
bd2d55a4
3baf7c5a
3d136e72
bd3f151e
bbe67ca1
bbbccaf7
bc95e9e2
ba9aa02a
bd6189be
bcce464a
bbeb8950
bcd33b10
3d1a3b15
3d282a56
bd68f4b6
bd7fac1d
bd0be404
3bff65a6
bd4915be
3c5fa00e
3c8b06c4
3cf2de44
bc9d10b2
3c808a69
bc3c1f00
bc8b5aa7
3b7bfab8
bd88ffb9
bd4fabda
3d3e0264
bd5af07c
bbdf87ba
bd05d207
3d5ef417
3d6469d7
bd0aeea6
bd36f4bf
bad7f0ed
3c3fa094
bcb2d0a2
bc447a18
bc90eed0
3d639d5e
3d40218e
3d496894
3ce25205
3c04da5a
bc637de9
3cffeb07
3c02c4d6
39f3323c
bd23af32
b9b9c157
bd4bdcad
bcaa66dc
3ca41e58
3d077037
bc366730
3bb03694
bd0d92fb
bd73ca32
3c9af9ec
bd8d8128
bcad42c4
3d65119d
bd63315d
3d6cedd5
3d530ad4
bd4d2b2c
3bdae8ef
3b2a9f7b
bd2290ef
bd43d146
bccbd33d
bd611cb0
bcfb95a3
3d408744
bd4ec95c
b9425d32
3d621859
3b571f36
bcc4028e
bc18e0a2
bd2efa1e
3d17353b
ba3f5617
3d3775b8
bd57b310
3d432229
bcec679d
bd3dfb0d
bbb8e8ea
bd4abb45
3d5e3a7e
3d424f66
3d1aa609
bd631833
bc2dbc66
bb2c62ca
3b3fb15b
bd54ea07
bd22d517
bca513b6
3c3634db
bcbc579f
bb381733
3c73e89b
bd547497
bd1f687b
bbbe0ded
3cad03da
bbf0d413
bcc2e771
3d5b8349
3d14a904
3d1eeaa7
bd60407d
bbdf29c7
bc61eb42
bd0256bd
3cffd827
bd72074f
3d01f751
3d2fd75e
bbef4b7d
bbf9e966
bcfe5647
3d76e829
bd0bfb16
bc832336
3d680bed
bbca460a
3c3417ca
bca2120e
bd2b020c
bd15182b
3bd62033
3d5c26dd
bcc79d4e
bccc61d8
3d24ebdd
3cbda0e0
3d610add
3b0cd2e2
3d637260
3d0edd48
3d39ffd6
bd4fa26a
bb791f3b
3d2be9c9
bc1208ac
bcecc1ca
bc999dcb
bb6ad0c4
bd0e086c
bd295fab
bd624fec
bd2da986
3c5f71eb
3ce4ecea
3bc5b079
3accd6de
3d55db34
bacfeec0
bd45a1cb
3cdfbd6a
3d504f6e
b8b1268f
3d633376
bcdf97ab
bc80c0f0
3d1c1c61
3d7925bb
bd1d95dd
bc7c2a88
bd3eeb2d
bd53bafe
bd39bfdf
bce4f54d
3d2249a1
3cc12ad8
bcee2867
bd18adac
3d2e2da5
3d2e99a6
3d3f4eca
3d017a89
3d080a5b
3bb6b60a
3c26b93d
3d15bbbf
3d0409e5
bd3fc116
3d4cc682
3cc1d085
3cf43c7d
bd0d1d8a
3b7299e6
bd0c89b1
bd4bdec6
3ba747d8
bd0dc550
3d5b6b2b
3d1a8ef7
bc6260b3
3c3606b8
bc879c41
bb27b9ee
bc552c17
bd1b7ae5
3c36d43d
3d2d8d37
ba716d40
bc4714fd
3ccd7cf6
b8ebe89c
ba81b77b
bd59dece
3ca2680a
bd54f590
3d68a82a
bccd184c
bd036a83
bc4f8940
3cf91a33
3d398a65
bd1d14e4
3bb7ffb6
3cd2178f
3b2f5acc
ba6c595a
bd3573eb
3c21c11b
3d31a198
3cf50c1c
bd6ba6ad
bd5989df
bd093d96
3cbdf2aa
3ccd466f
bc10ff97
bd4afa2f
3d7f327b
3d2e008f
bb9b8cb9
bcd57de1
3d394b7b
3c7f4ba5
3cbccd10
bd286e7e
bd3f4342
3d2cebbc
3d244a62
bd532a49
3c2415f4
bd0a5482
bc86d0d5
bcbc3611
bc59902a
3d5b5632
bd595358
3cb82e45
bccf8940
3cab5c3a
bc95e9e2
3d5c486b
3d2312f5
bcdd1e54
3d0bdba1
bcde4a38
bd1e29b7
3b6b6e79
bd50b73d
bd0ed4e5
bb8fbffc
3ce4712e
3c4f4624
3c8ab713
3cc9ff93
bc85a4f0
3d4a7d67
bd6832ba
3bfc9d75
bc305b7d
bd0ab3ee
bc4e3583
3d1dd2af
3d1170d6
3d0155d6
3c2bd5dc
3d3090f7
3d0cb8e1
baae7f04
3c4193b4
bbe64cd1
bd0ae31d
3d7cf5f5
3d069729
bd2c7a7d
bcf6dfc6
bcbeee52
bcf06b38
3c94ad36
bad3f83a
bd42bd7f
3cece9a3
3d5fa227
3cc302b4
3bbf6281
3b4f8360
3c979bfe
3c9f4906
3d68d328
bcc1e14c
3c36177f
bd573322
bc2d31fd
bbec9c76
bd4b9778
3d2cb74e
3c8c8473
bc30ea18
3d045133
bc20ca7b
3d5b089a
bd12f4cf
bd17507f
3d5ed6bb
3d5df00b
bce9f05f
bcaedbb6
bd0e9c45
bcbb44e5
bd058ff7
3cad05f3
bd286727
3c507c85
3d3402d1
3ceed02d
bd45ae60
bc944674
bcbbe879
3bae95aa
3d129fe0
bd205ccd
bc53bf2f
3d6d794a
bcadcf46
bd29c023
3d6fb2ab
3d8b0319
bd324313
bd30079a
3c7077cd
3d2bb774
3d01d9f5
3d48effe
bd49a77e
bc092111
bc1ed685
3cbeb7cc
3d67d567
3d08919f
3cd9af9f
3d68c261
bcbbe015
3d599674
bc8e820e
bcb4d6a1
bd243aa8
3cb3a040
bc05bd44
3d42e664
3ba62167
3cf8a8f4
bca6cc1d
bc1a4d89
3cf3bea9
bd3ef7c2
3d219c9d
bd0cf7cb
bd361134
bd478c87
bd07570c
bd14bcf1
3d708bb9
bd45be1b
3b1131ec
bd3c6da4
3b1712d7
bd2b990b
bd64ecea
3c7034b1
bd1baf53
bcc0c1fd
384e2330
bcec050c
3d52630f
3b9052c9
bd5e3b8a
bd1fba45
3c62c12b
bd131ec1
bc56494d
3b858d73
bd2428d4
bd46b9c3
3d023316
3c2f9ebf
bbeb9d72
3d6107b8
3c9c6f37
bc003834
bcf1348b
bcd02abb
bca24cc7
3d003361
bc9e94ab
bd6c625f
bd35c28f
bcd77319
3cb99913
3cde2691
3d4da6e7
bc6de11a
bcbc408e
bbc7fc83
bce62fe0
bd60a73f
bd3b762e
bbf6bfe5
3b19722c
3d0f54d2
3d3c169c
bcdd97f6
bc829281
3d515055
3d622920
bd57c808
bd4ea6c2
bd097c81
3c3213e4
3c8815e4
bd1e9c02
bb15abce
bb49ec48
3d586ec1
bcf008a7
bd219eb6
bd65fd8b
bd7a94bc
3ca3571d
bd7e132b
bc08f3c5
bd202fb6
3c8c5eb3
bd4ca70d
3c53a1d3
3bca247c
3d45dd90
bbe0cee2
bcf6188b
bb893e02
3d15d3dd
3b9855cd
3c33bfb6
3c1b99b9
bd364389
3d4e1c58
3b8b0de6
3d6c5f39
bd0d35a8
bd001d5c
3d07ef17
bd282e88
3cdc981c
3cda20de
bc7c610f
bd12513b
3d2d8f50
bcccf4a5
bd4aa002
3ca55b03
bc654b49
bd47b784
bd07b891
bc89c5e7
3d1666aa
bcf18655
bd1bda51
3b564bd2
3ca86d72
bd13a92a
bd56605f
3d141a69
bc12b0dd
bc44f7ec
bd64a6a8
3d544cbe
bbf8b8e4
3c15d986
bd1fea81
bcb28523
3bc182ed
bc02cfbe
3d1a4df4
3d2e685e
bcf56ead
3d5cf030
bc4e24bc
bcc7ef17
3d129bae
3d1a6506
3c6236c1
3d6b862b
bd411e43
bcebc622
bd218266
3cc17a89
bbb856f4
bd06705d
3bf11b61
bd42acb8
3d40e6b0
bd18915c
3c7fc116
bcb0e3ce
bd0372e7
bd616617
3d1477bc
3d42f2fa
3d584a0e
3c5b163c
3c013016
bd0db9c7
3d1a6506
3d8032db
3d37110e
3b95fd2d
3d34f616
bd445027
bbda61e1
3c1d8e1b
3d13ad5c
bab644cb
bd1cfaad
3b0329ec
3d6c625f
3d1ddc1e
bc917f84
3d01e03f
3d5dc726
3c95f890
3c8d887f
3d090b41
3ccea077
bb65fdf6
bcd54b8c
bd0a72eb
bced1394
3d2805a3
bc31d0c8
3d5a3098
bcce8102
3d5b024f
3ccd8ba4
bd5231c6
bd0e4431
3d21c044
bd235504
bbc664d4
3c2e18ad
3cb3a259
bd0fa483
3c4d3177
bd1d80e5
bcb5e743
3b0ccdd9
bd19c8c9
bbc5776e
bd11afc0
3bd491bd
3ce4345d
bcaa1d75
3d26e547
bbdbfa67
bce0ac7e
bd60fe48
3d6a7bd5
3cdf15a5
bd01700d
3b47acd2
3d5aec4a
bd680496
3c8c825a
bb255a98
3d67fe4c
bd1b0dd8
3d07442c
3d34acb0
3d582ba6
3985b58c
3c9da37f
bae13f4b
bd690ff9
3d4167a9
bd62877f
3cb63f57
3d710fd8
bd0a01ac
bd41c821
bc002554
bca39a39
bc950dae
bca84be4
3ce4e054
3d3d31ba
bc449774
3cabead5
bd0ccbc0
3d1cbee8
3d6670e3
bd66f60e
3d0e7579
3bbbcbf4
3d2d59d5
3c9ed7c7
bc93c255
3c858dde
3ced5065
badc4e4a
bad66bb2
3cf20a74
bd30ab2e
bbbc96f5
3c94ea07
bd1b877b
3c444bf5
bd0f3450
bd4b2d90
bd01b542
bd579e17
3d11b930
3c492ddc
bd4ee7c5
bd50afe6
bd04d65e
bcfc957d
3c85a922
3d79b77c
3d6544fe
3d2acd9f
bc7ede98
3d5f7404
3a4f5fcf
bd2e989a
3ca9068a
bca41e58
bd5ca298
3b18fcbc
b8546cba
bd4deb10
bd02107b
3d8a582e
3c6afee7
3b8ff251
3d7f4cb2
3bda8445
bc9f46ed
bd50f840
3d5bbe01
3d2eb80f
bd1db446
3d361028
3d06cca3
3cd759ef
bd1612c7
3ca78f26
3d2a465a
bd6a0664
3cb7f38c
bce17c1c
3ca31401
bc2cf744
3d21511e
3caccd53
bceda017
3d20e51d
bc77a0b6
3c60c176
3cb9fdbd
3d606ea0
3cd8dde8
baf5f83f
bca836eb
3cdd8f93
3c0be008
3caecd08
3bea0c79
3cb3eff2
3ccda6e7
3d4db057
3d07d3d4
b9451472
3d5ee350
bd513d75
3d23a084
3cf3f962
bd1b994e
bd5c219f
3bfa0946
bd1199bb
3d4cb5bb
3d106680
bcc5aa2e
3ce1a60d
3bb57746
bc930be1
bccb8e08
3ce581cf
bd5bee3d
bd2e1ef7
bc864ecf
bc029bbc
bd6d1bf8
bd2e9468
bc8cd20b
3c9856a3
3c107a36
3d5edd05
3d54d402
bd33929f
3d068a93
3d4780fe
bbce6a5c
3cd2bd3c
3d59f905
bc8092cd
bc66ea85
bd304ab6
bcc4c166
bcb64bec
3cc79703
3d2327ee
bd1edaec
3cdb3398
bcd13943
ba361c87
bcae8188
bd25cb36
bc84be40
3bb0de5a
3d389d6b
3d5971c1
bc6c918e
3d34a127
bd365237
3d206fac
3cdbbbe8
bbda81c1
3d17d5aa
bc8c197e
bd5b24ea
3ba0a6d4
3c018aaf
bd30f8c6
bcb4373f
bae74016
3cb4acb0
bd2c8f75
3d27589f
bd354089
bc95cc85
baadfc27
b8c1d55e
3d1b65ed
3c1a316f
bd05ccc9
3d302928
bbc6a642
bd074fb5
bd22fbe3
3d3ee0b1
bc855758
3d6ededb
bd1a9a80
3c3fd71b
3d5fa54c
b924c343
bc3f3387
bd173322
3d01c0ca
3d2d3a60
bd0adcd3
bc1018e7
3c89374c
bc839abf
3d783ada
bd6fd32c
bd5e0d67
bd244fa0
bd290471
3d79bed3
3d03a96d
bd5a08c0
3bcabfac
bc493ea3
3d03d89d
bc30a2cb
bc0e5380
3d3db5d9
bc568c69
3c6a3162
bd4acf31
3c3777d1
bc6da661
3cb2074f
bcbd1eda
bb7a26a2
3d4c6f7a
3d5fb720
3d1a7e31
3d5fbd6a
3c0191d0
bbe5b856
3d3be33b
3cd6abde
3d6bef07
bd6291fb
3cdb8349
3d241b33
3a768934
bd607e5a
3c4a361a
bd227e0f
bcadc6e3
bcd95bbc
3c9e603d
bd46b7aa
bd50a02c
3d1a09cc
3d67b3d9
3caf5771
bc828c37
3d469f8c
3d692f6f
bd2c52a4
3c478e9f
bd1b9a5b
3cc04641
bcd5885d
bcd9d12d
3c934ce4
3d6cecc8
3d0c1440
bbd3a6dc
3cdbd0e1
bd5844d0
3c10a351
3d4996b7
bccd338f
3d70079a
bc38cb8e
bc7ea811
3c05f6ba
3d3f5409
3d4b3b32
bbd040f6
bc081d70
bd554003
3d332df5
3c897636
3d04cdfb
bb78ba91
bd5ec4e7
bd5e646f
3c957cd4
3a981535
bc33cc4b
3d177b7c
bd0a19ca
bd16eac8
3ad2806b
bc9f4b1f
3d361dc9
bd55af29
bd470974
bc9930be
3a8f1405
3d0bda94
bd069403
3c3777d1
bd11409a
bcb60f1b
bce6b830
bb2b3ede
3c6cbb80
bd5a708f
bd7039ef
3bf28340
bcd972cd
3b2ee55b
3c8ebcc7
bcb8eb03
3c9a9329
3d3f3beb
3d28cbd1
3cfe889c
bd4d9f90
3c8ad688
bc0f974d
bd2f48c3
bb42b1c1
3bc30828
3c968f8e
3d62fcf0
3c7a615b
bd54d402
3c30c459
3c4c100e
3c9de482
bc8661ae
3d491c08
3d32a8ca
3d6f123c
3d4db057
3d3192ea
3d26772d
bcf4f2f1
3cf26f1e
3c3313be
3d1cf249
bc0fb4a9
bd1971c1
bd4dfdf0
bcef0069
b8e639b0
3c9a79ff
3d5ab9f5
bd656bca
3d521ff3
bd48bda9
3bd1c631
3c8f4f94
3ca0a527
bd1c8755
bd620cd0
3d0d5a5c
3d4bddba
3d43c18b
bc54d402
3cede764
3d5592da
3d486f05
bb5c8ab0
bc2fff37
bcd1611c
3bf60fbc
bce1c151
3c85d313
3c2b0c89
3ccc5da7
3c5d93c4
3d4ede55
bb5934ba
3c163e9b
3cb59579
3d360d02
3d64e69f
bd25abc1
bcdbc87e
3d01a9b9
3cc55c96
bc9af5ba
3d27589f
bd4d1633
3cc3d039
bd498f60
3cd54110
3d039bcc
bac65d47
bc6c7000
3b45634c
bcaf76e6
3d4342ab
bd087336
3d622b39
3cb139c9
bd611cb0
3d44f5d3
3caeea64
3ca5aee6
3bcb46bb
bd50d8cb
3c9dc93f
3ca22920
b841c6df
3cda1230
baab2abc
3cfea3df
3ccc2939
3c2b6d01
3d52274a
bce5f527
3caa6091
bd6bd2b7
bd6ce465
3cb6ed67
bd3f9b56
bc768be3
bcfcb2d9
3cba1d32
3d1d9a0f
3bb31dcf
bcf51ce3
bd53fc01
3d338e6d
3d45857b
3c9f7f8d
bd5cbab6
3d3c7c52
bd20fe48
bcab1705
bd727675
3d478b7a
bbd12d85
3d3f811f
bd841787
3d1e6ff8
3d7d4e09
3cb912dc
3cb39e28
bd336dec
3ccbc05d
3c0131c4
3ce351df
bd1c9d5a
bd243bb4
3d19a0f1
3d493c8a
bd62c237
bd06876e
3d325c3e
3ca595bc
bd13b18e
bc859642
3d231727
3d11b4fe
bd2e8af8
bbf3d7d4
bc77121b
3aa1c4e1
3d4e8534
bc31c001
3cf21709
3ccaeea6
bb9d6fe8
3cc3d89d
3d138477
bd7c2a88
bb951754
bd05a5fc
3c8e8427
bd488616
bd25742e
bd045ed5
3d6325d5
3d5f3f96
bd067be5
3cc87336
3bc4b755
3af2bb74
3d4bf8fd
bbe3920b
3d407dd4
bd20168b
3d5b10fd
3c92c6ac
bd400970
3d5d9903
bcbcc07b
bc158172
bbf039b9
3d8a6b94
bcbed30f
3d24a277
bd0bcbe6
bce3150e
3c81754b
3cd3d85a
bc0f2a3f
bd724e9c
bd282e88
bca595bc
bd405d53
bd4f50a0
bbbe51e0
3a981535
bca94dd7
bcb4cc25
bd228cbd
3c4f56eb
bd18adac
bcc855da
bcb7cbb4
3d072c0e
bcb59ff5
3cc78a6e
bd595bbc
bd652589
3d03b603
bb18e6ec
bb43fc44
bd165e46
bd50e12f
bd221965
bc78ca82
3d2d5e07
bd6a8976
3d69a911
3d39cd81
3d70d62c
bc2ad602
3d2be9c9
3d35158c
bca28998
3b8dd540
3d3fd1dd
3b95b284
3c4e3583
3d48db05
3d3b45f1
3c511383
bc4892ab
bceb8d82
3cb0984e
bd31971c
bd1b4cc2
3d33eab3
bc7312b2
bd0302b4
bd8069e8
3d1c853c
3d0c8cd6
3d50c804
bd4b0d0f
3c99a1fd
bd34091c
3cc34e33
3d65fe97
3cef5233
3b30673b
bc63e293
bb43d252
bc9187e8
bd258d58
bd21e0c6
3c6a3df7
bc503537
bbc23aa3
3be4f913
bd167664
3d0f68be
bc63f35a
bcf11f92
bcac27a6
3d1af9ec
bbb79e67
bc96a055
3d0445aa
3c896bba
3d1f1f15
bbdc3bd6
bd1a8bd2
b9710693
3cfd9fd3
3d2a7265
3d02773e
3d0d4131
3cda20de
3d451c9f
3bfdbedd
3cc30f49
3b2400fc
3bd18670
3d756217
bc49eecc
bc42b51c
bcf318fc
3c3dc6a0
b953547b
3d86a6e3
3c5de7a7
3cab7baf
3d4c2507
bc9ced0b
3bb12d34
3d6c5198
bd51a75d
bbbafb13
bd2a24cc
3c93fd0d
3d24da0a
bd06173c
bd2a033e
3d42e233
3d257b85
3d509396
3ae859f1
3d074fb5
bc544567
bceefa1e
bcb150db
3c10df4b
3d130dfa
bb8d0b16
bd449ecb
3d4b9885
3bc6e6da
3c4eb357
3d83cf2d
bc855da2
3d339c0f
bcf1715c
3d024702
bc2331c9
3c4ee17a
3aa558ea
bc5aec4a
3d6de43f
3d62680a
3c0b3263
bcc790b8
3d5c219f
3c339192
bcb0dd83
bd683a11
3d45b39e
3a9e8160
3d5c50ce
3ca8b4c0
3d12a412
3b150409
bc5d3fe2
bc6bf22c
3c0416e6
ba6354cf
3d680065
3d0a9ac3
3caa9d62
3c2275e1
bd047b24
3d1cdc44
3d017226
3cdc1616
3bb47ef8
bd1b413a
3bf81f61
3c93c686
3c9d66ae
3c8665e0
bd6b7026
3d24fca4
bca54c55
bc2072d2
3cd40896
3d50f627
3d03fb37
bd34ff86
bba12b5e
3b7c58ac
3d635936
3cc7c526
3d53c89f
3bd3572b
3d0f4517
3d57aede
3d59d020
bd35b1c8
bb3a5d5e
bcf56649
3d41259a
3b3cd78c
3c42acb8
3d4cdc87
bc58f92b
3d71b585
3d0c33b5
3d1ccea3
3a6ddb3a
bd55e8d5
3cb9b888
bd112cae
3d2eafab
3d032874
bac91dec
bd176790
bd6074eb
bd4ab0c9
bd51d367
bbc54e53
bca2d0e5
3c9f1f15
bc5fd263
3d6a758a
3d1c5f7c
3cdd65a1
3bc4e2f3
bc64a383
3d3d36f8
bd4cc682
3d6dfe76
bcee84ad
bc007281
3d57e996
3d3eee52
3d5e0503
bd32becf
bd3ee2ca
3be99e95
3d632a06
ba8b9ad3
bc0fe47a
bd501f32
3d2b8306
3d690258
3a4a24fd
3d3497b7
3d552e30
3d1f44d4
3d2480e9
3b9b3a84
bcd6238e
bc68ee6c
bd442a67
bd616e7a
bd640746
bd4ea290
3c6ed02d
3d66234b
3b91402f
3d37ad4b
3c53f5b6
bd30d738
3b92c062
3d434c1b
3cb70ef5
bc1c0e53
bc8a1166
3d7fa2ad
bcb0af60
3c2b430f
3d0f4c6e
3c1fbda0
3cc0fa9c
bd5246bf
3d3d9ec7
3c2eee95
bc187c63
bd01f213
3d497204
3d66ea85
bd31af3a
3c3d9019
bd46a1a5
3be39dca
bd30196e
3d115593
bce50e78
bcc0af1d
3d0903ea
bcc6c97e
3c89ca19
bcc44178
bcd88c1e
3d7af428
3cce26d5
3bb506dd
3d8319c6
3c9116a9
bd5070fc
bcf294dd
bd3b927d
3d449342
3a07dc83
bd1017db
3d2c5d20
bcf53a3f
bd5945b7
3d0d594f
3c8a32f4
bcd77532
bd1af3a1
3d368dfc
3b820d8c
bcc6a7f0
3d346dc6
3d4ea9e7
39a80619
bc709d8c
3cc9c90c
bcc41355
3d191bc5
3ced2aa6
bd4c4695
3d0a1f08
3d61c044
3b717e5d
bd0f6be3
bb5551d7
3d66d480
3d6c6cdb
bd17cf5f
3d76f3b2
3b8883c8
bce514c2
3cb4c1a9
bd12c6ac
3d625b75
3c6ebb34
bb0362f6
bcbd9cae
bb483813
bd1ce076
bce5cd4f
bd34d8ba
3d4d4cba
3d3d1fe6
bcdfa00e
bcea832c
3d4e2c13
bd27008a
3d3b82c3
bc2f7d31
bd3e20cd
bd628bb1
bb8c5f1e
bd3df4c3
ba5cbfb4
3d2b7dc8
3cd56085
bb167019
3c023275
bd458149
bd3d34df
3c4de5d2
3d55bccb
bd735d25
3ce17a03
bd0ca1cf
bc5e7642
3a61c37f
bc25c1c6
3d386d2f
bd0e93e2
3c953bd1
bc66cd29
3d12da98
bc02d3f0
bca908a2
bd246bf0
3c5ae3e7
bcaa4b99
bca69df9
bd0aafbc
3c8fa377
3c86466b
bcbd1676
3d5614e0
3c4e7cd0
3d229a5f
bc64f334
3c015b4a
3cdef417
bd618373
bca9eb20
bd481d3b
3c881c2e
3c521ff3
3d38d4fe
bc53ed52
bb08036f
3d6fa0d7
bc944ed7
bd45d851
bd293e1d
3d5667b6
bd0abc51
3ca4aada
bcb16a05
bc719935
3d66f0d0
3d0588a0
bcf56ead
3c93af75
bd1f04de
bd563348
bca72c95
bd613b19
bce57109
3d380baa
3d4c0379
bd493426
bba8b3e9
3d960fa1
bbd2a04b
3d88f191
3c0b5f44
3c550225
3d2175d1
bd186983
3cd95140
bd397aab
bd1c90c5
bd618373
bcd7c915
3d432767
bd03914f
3d5d0fa6
3d2f8bdf
bb488037
3cd59b3d
3b4d00cf
bd0c1227
3d07852f
bd03c6c9
bd071c54
bc30ff11
bd325919
3d315c64
bd51ac9b
bd0bad7d
bd17add1
bcb9f98b
3cb28b6e
3d5701da
bc4ba733
3d3c957d
3d4ba51a
bc38ed1c
3d11cd1c
bcc78e9f
3d4b1466
bcfc06e2
bd8c93a7
3d01c1d7
bceaa8eb
b94fc92c
3d084838
3d7bb2ff
bd7484d7
3d186339
3bb3d07d
bd3ff045
bd0b5aa7
bd0caa32
bcddebd9
bc935116
bc573861
3d4d4456
bc8a7c5b
3ceb0319
3b28cd13
3d1eafee
bd617c1c
3d463ae2
3d64e8b8
3a291334
bd4d130e
3b7c1590
bceb69db
3cebf013
3c38e087
bc52d44e
3d27afa7
3c762739
bc449774
3caac754
bbb49096
3bf96b91
bd2ceaaf
bcbaf74d
3d2b649d
3d2bfca8
3d0f2496
3d316a05
bcebdb1a
3d0f398f
3d734b51
3d52ba17
3d2070b9
bc93f6c2
3b41e86d
bcbe7f2c
bcc70a81
3cc00970
bcd15f03
bd31b36c
3d540bbb
bbce6c09
3b9a0423
3d264e48
bcc217d3
ba97cb63
bd656580
bc3d2b6f
bcb825e1
3d233376
3b9ec121
bd4a2b9d
bd33f63c
3c7166e0
bc48d196
bd3443d4
bd6ef4e0
bcc50269
bc9e6688
3d00b029
3d573754
bd796bfd
3d3a8f7e
bd1f57b4
bc624bba
3d4ce1c6
bd0a45d4
3d676b7f
bd53dd98
bd567664
bd4b2208
3c4df267
3c9effa0
3c134c0d
3d6f8594
bd80ab71
bcc651f4
3c5288ce
3c9fa11b
bce8ad69
bd39e16d
3cdda273
3ceebb34
bce8ee6c
bcf35c18
3d50e992
3cabe271
3cd91ab9
3c233df3
3d2514c2
bd23a29c
3cd62175
3c154dda
bd2558ea
bd06dc5d
3d3f811f
3d67ce10
3d22e6eb
bcc3aa7a
bd6ac754
bd553bd1
3d0bb4d5
3d12dcb1
bb958893
3d006c01
bd62a800
3ceece14
bd02d59d
bd6fbc1b
3cbfceb8
3d797bb7
3d69c993
bb1345c3
bca53112
bd2b862b
3d53d20f
bcf10ecb
3d821d97
3d244b6f
3d26f827
3c3afd97
bc45718f
bd25c3df
bda2ac32
3d0fd19a
bc79ca5c
bd3c9689
3c49081c
bbce5cf0
bd027525
bd243782
3b6462ec
3d1d2285
3ca6d04e
3d0a569b
3c633acd
bc3445ed
3d4153bd
bbaa1f23
3d466905
bc8a2caa
bc32d0a2
bd112dba
3c9dece5
3d755476
bcfa3b9b
bb6a5b53
3d614595
bc35c39c
b9dbcac2
3b959a31
3d5e6ddf
bb335f3d
3d4c5975
bd5ef523
bd3470eb
bd6eb1c4
3c975297
3bbeaefd
bc833e79
bbce2740
3c369985
3d24c943
3c847b24
3bf364e7
bb5abba3
3c720642
3d2542e5
3ca3f24e
bc064ecf
baa16392
bcd7fd82
bc4158fb
3c7166e0
bce9d94d
3d15475a
3d76933a
bb810e88
3bb8f224
bd628566
bca480e9
bc887443
3d2b8b69
bd28a937
3c2bc515
bd58a97a
bd584e40
3b1efbd9
bd2aa3ad
3c082492
bd3a7daa
bd036fc1
bd11159c
3d7f38c5
3d3b3312
3d28ed5f
bd307e17
3cffb481
3d769ec3
3c6cfa6a
3bb4cdd3
3d3efe0d
3b591b90
3d78cb8e
3d4117f8
bd691538
bcc4f7ec
3c8f5e42
bc9eeed9
bc05582f
3d2ac860
bcbe6c4c
3cd6366d
bc824b34
3c0c74ee
bc5d7236
3d25cc42
bd7cd467
bbaa54d3
bb980da8
bd558fb4
bc5288ce
bc23146d
bd1de7a7
bcf5d9a1
bcd6abde
bc877681
3d4c5650
3bff1cab
bd2b8d82
3d220cd0
3ac8d41a
bce909af
bc913837
bd5f138c
3cb4fa48
3c2b92c0
bca68d33
bd6fc265
3c7926c8
bc68f6cf
3c9563aa
bd0bc05d
3d44827b
3d6e0b0b
3cd425f2
3d5cb9aa
bc36d00b
bd0b673c
bcf11b61
3b9d1c05
3d741398
bbc927fd
bd47607c
39f95744
3c5013a9
3d44534c
ba9f3d48
bb3fc075
bd705426
3d442529
3c7d694d
3d5885d3
3c3e76c9
3cff7dfa
bc114892
bd2161e5
3d0c069e
bce38866
bd4487ba
bd238759
bc2dafd1
3d2809d5
3d17de0d
3bdce549
3c68101f
bd445dc8
3c975297
bc7733a9
3ca17b0f
3d021c04
3cb99913
3d30bd01
bc9ed9e0
bc84bc27
3cfe6d59
bbf7a5be
3d075c4b
bd363a19
bd226d48
3d7ea91e
3d1d9903
3bcf1d09
3d535fc4
3d2fee70
bd1157ac
bcfa3550
3c7ba451
bd22e1ac
3cbbf940
bc726289
bbe00a97
bcc83a97
bd6c0d6f
bc2f20ea
bd43fe5d
bceef805
3cb662fe
bce8448d
3cc9bc77
bc9baa15
3b61ea6b
3c04b938
3d4f0a5f
3cb9d5e5
3d2a704c
3d2c7757
bd1d744f
bd79207d
bc4aa327
bd22ae4b
bd08df37
bc20776f
bc47c958
3d0de7ea
bd47abfc
3d6603d5
3c4aafbc
3c8639d6
bccb0186
3cfa3769
3cfa072d
3d0404a7
bce11772
3cd63cb8
3d7722e2
3ccf8940
bc31bbcf
3cc20d56
bd40eae2
bbce6c09
3d23fab1
bcba16e8
bd077dd8
bbcbc63d
bc57518b
3d021294
3d36f08d
bc186c73
bc9d3240
bcb647bb
3d57f1fa
3cf5275f
bcbe24ff
bcd4b8bf
bc82c4d6
3d373f31
3bdf8389
3cfdf7e8
3d46e08f
3c42dadc
3d2c0c63
bd5bcba3
bbba27af
3cc38b05
3d5056c5
3d558fb4
bd3470eb
3d497529
bd02d278
bcfcf3dc
bd500c52
3c9da7b1
3a2b2e17
3bfb0849
3d68522f
3d230878
bd656473
3c94f8b6
3d3cff65
3d266ba5
bcdf633d
3d676d98
3d341bfc
bc3ec67a
bb82d100
bd3eed46
3cac57e2
bc3a2be0
bcf340d5
bcdcf67b
3c0b516d
bd309fa5
bd33bb84
bd2e88df
3d22b27d
3cfb2895
bd4c0486
3d55d91b
3d48ecd9
ba3989a4
bcff609e
bd0a16a5
bc375211
bc0585e6
bd29ab2a
3d1a1661
bd677920
bd559b3d
bb197587
bcba5e35
3d4cdea0
3d365343
3d5537a0
bd4ca1cf
3d797cc4
bc2a36a0
3d36a2f5
3c19510a
3c1e60a9
3cf61ed6
bd62e2b9
3bf1a26f
3d772713
bc777293
3cb52a84
3caed352
3cdccea3
3d37bd06
3ca00e28
3d66f60e
399d43f3
3d164d7f
bd4d0892
bbe63c0a
bd443915
3d042d8c
bd5e279e
3d4168b6
3d7ebd0a
3d28f3aa
bd239d5e
bc060716
bcc4a409
3d5a1017
3c72d7f9
3cb879c4
3b3d2d1d
3d7d6627
bd65ce5b
bd68f6cf
3d2b0425
3b7cb84d
bd5bd2fa
bcfed634
3d36b4c8
bc9b21c4
bb601656
bd07f994
3d55ce9e
3cae72da
bc4cff22
bce512a9
3ca4aada
bc7d7e46
3d1ed395
bd5e614a
3c378466
bcb46562
bd6a6b0e
bcfb9171
bc8b6523
3d1bc233
bd7457c1
3d59806f
bcccfd09
bc439ffd
bce3d3e5
bca9aa1d
bd24cc68
3d54e8fb
3ce1565c
3b109940
3d5142b3
3d5054ac
3d3f8fcd
3b9c03d7
bd63033a
ba8b46f0
3d1b4891
bc7e8251
3c9107fb
3d432010
bc1a15c0
3c2cc4f0
3b91c590
3d509bfa
bcab9b24
bce529bb
bc9cd3e1
bd031df7
bd6f501a
bd53cab8
3c70520d
3d58f4f9
3ba90471
bd0e1826
bcebfca8
3d12178f
3b3cfc75
3cd3c793
3d6a8c9c
bd484f90
bc324a6b
3cc5f5ae
3cea1c69
bd322079
bd21a933
bc1c4eeb
bd381b65
3c2dea89
bd1e614a
bd0c2720
3cf4b620
3d304253
bcba5a04
ba9e0894
3c94b59a
3cb5dcc6
3d2030c2
bd104c49
bd343c7d
3d01e14c
38d56d5a
3d315726
3d2ed352
3d0e38a8
bbd282ef
bd778466
bca49c2c
3cc5c78a
bcdd93c4
bc29a805
3bf32881
bcccdd94
bd04c6a4
bbe3864d
bcfff9b5
bceb356e
bc99157b
3d0b4f1e
bd20b6fa
3d404d98
bd07df5d
3d36d43d
3cbe1438
3c9528f2
bc80b88d
bd06a2b1
bd548a9c
3c55d3dd
bd22e7f7
3cfa4e7b
3c3acb43
3d3d9125
bca4af0c
3d7b395c
bd25fd8b
3d4e8c8b
bb4a9c71
bc044285
bcf84663
bd20bb2c
3c81a36e
3c3ac711
bd553049
bd4841ee
3d2e1587
bc4a5bd9
bca16e7a
bd090603
3d5f1173
39d3fc41
3d489c1b
3be6c3ef
3cd6d19e
3c8c0054
3c36dca0
bd81c8a8
bd217093
bd2861e9
3d2f1130
bc999568
bd2f123c
bca1b3af
3c7feb07
bd654717
3c28d64d
bc1fb613
bd270197
3a286e1e
3c885b18
3c8d60a6
bcf865d8
3d07a5b1
3d2ba5a0
3a4a7b8f
3c12f611
3b6aa6d2
3cdcb9aa
bd293f29
bd3ee5ef
bca087ca
bd2847b2
3d2a0126
bc1fa186
3cc46306
bc8433d7
3d5c78a7
bc2b3aac
3c6b67c3
3ccabc51
bd3d4174
bc922fad
bd2c7326
3d1f2a9d
3cdc7cd9
bc07c12a
3c21d0a0
bc22cf38
bbcb1466
3d478c87
bc842d8c
3d0ad256
bd4181e0
bcfa6bd7
3d13825e
3caa044b
3cee2004
3d4bc383
3d21c369
bc3bf50e
3bc8abd6
bcf2ead9
bd3112fd
3c624357
bd370de9
bd4ca3e8
3d7c547a
3c8259e2
bd1c2092
3d19ba1b
3c1ccaa7
bc9c1722
bcdf8f47
bd432010
3b891410
bcb400b9
bc45a3e4
3d2fd220
bc2b3ede
bb8a4f7a
3d07735c
3d39e061
3d464346
bd56d2aa
3cc0aaeb
3ccc09c4
3d41a049
bbb1d0c8
3d08e044
bd2e1ac5
bbd0b235
3d0080fa
bbd378b8
ba48325e
bcaea961
3c7c6541
3d5ddc1e
bc2dafd1
3d651e32
bc5b163c
bd1cb146
bc4b4289
bd71c10d
3ce98351
bd0151a4
3cabd3c3
3d046b6a
bd2b430f
bc0fb799
bcbefd00
bd59ac79
3d5f5be6
3c55cb79
bb21c186
3d714b9d
bcb836a8
3ceafcce
bd22ae4b
3caf20ea
3cbcc4ac
3cc4da90
bd51d14e
bce0ce0c
bca2ee42
bd25f0f6
3ca1fd15
3bbaeda7
bce29952
3d368273
bd54f69d
3d03d46b
bd14e098
3c5106ee
bc10fec0
bc45a815
bd477575
bc5fca00
3d4b76f7
3d010b63
3cf84cad
bc9a0ad9
bcaa2c23
bb4cd530
3d192642
bd212945
bcd4866a
3af49b48
3c8d0460
bd00f55e
bcce0978
bd37a5f4
bc5bc233
bc9b38d6
bd6ad4f6
3d18d584
3d2f4cf5
baa5e933
3c388ca4
3c827fa2
bd65247d
3d6c332f
3d50f40e
bcdedf1e
bcf991bc
3c0a9e54
3c814f8b
3d58ba41
3d4fb00c
bc0c89e7
bd057c0b
3cb606b8
3c71886e
bd63db3c
3c08ede5
3b914537
bcdcaafc
bc818612
3c671cda
bcd4f15e
3d7fca86
3cd8793e
3d511e00
3cad5e07
bd3dfe33
bd71f362
3c67924b
3d2f47b6
3be9dbd1
bd128e0d
bd455da2
bc8f3882
bc83c4b1
3d3e5215
bcafbe34
bd0a0b1c
3b8d434a
3c880b67
3cd0df16
bc4bbc2c
3c5c1616
bc2a3f03
3d5c9e67
bc975afb
3b821442
3ca35504
bd04944f
bd09d27c
bc014f20
3c57f51f
3d0676a7
3cc14403
bd327bb3
bcbd987c
bd5e6ddf
3b20e0b6
bd0d9620
bd45cab0
3c232d2c
3b3aa228
3d64abe7
bbc5cb51
bd41d3aa
3ce440f2
baaf053c
3d48effe
bb918853
3c48c0cf
3ca7b917
3d18b1dd
3d733333
bc85cab0
ba8a51fe
3c72fdb9
3c026c56
bd215fcc
3ccb4070
3d469f8c
bce62563
3c8726d0
bcae2110
3d1f9054
3c02d609
bced6345
3d1b9d80
bd06a2b1
bd3ced91
3bdf00ac
3d3e89a9
bd12599f
3d6cfa6a
bd698aa8
3d5d94d1
bd188b11
bc355ef2
3d2d1288
bd19d884
bd334507
3bdf8536
bc3ddfca
bd4b7803
3c27c9de
bb5c31c5
3c75989e
bd64228a
3d425397
3bb20e05
bc6f34d7
bc73519c
bd550fc7
3d4940bc
bd2469d7
bcaa2e3c
bcfcfe58
3bf11a8a
39192500
3cd8be73
3b968512
bd1899bf
3d111cf3
bc3a7fc3
bcb9cd81
3c7f327b
bd1e9f27
3cdb7069
3d2a91da
3c86a4ca
3c8b6d87
bd4d5736
bd4dbced
bd2e6645
bd2ba9d2
bd7c2118
3d11e96c
3d7573eb
3c644fa0
bc2dd15f
bd50795f
3c9c5c57
b9f7898f
3c4e208a
3b7f667d
bd19e519
bbf74bfc
bd0e1c58
bcaaf790
bd27e308
3c35fa22
3d7a9d1f
3ce51d26
bd25881a
3d695315
3b2b5152
bb5018b2
3cdc7ef1
3d032980
3b950e1a
3ce822ff
bcc7735c
3c0001ad
bd17e88a
bd63b363
3cad8a11
bd485a0c
bc7c86cf
bcd16fca
bd4cf399
bd563a9f
bc9fdbd3
3d3851ec
bcb9b670
bc07e6ea
bc9a4df4
3d378cca
bd7b0f6b
bc8c73ac
3c305faf
bd16b767
3d625636
3d26bd6f
3ad0ea69
3cd02cd4
3b64b1c6
3d1dda06
3bea5219
3b41f0d1
3d2d288d
bd4cfaf0
3d3e3088
bc6d84d3
3d36d762
3d284be4
3d20ac7e
bd61101b
bd2ff4ba
3ca3bff9
3c5b8349
3d6173b8
3ab6706a
3d01b435
3d079d4e
bcd0d6b2
3d1d1c3b
bc150b2a
bd5d2d02
bcd35eb7
3bf0cc86
3d525aab
bca57a78
3c935b92
3cefe2e7
3b9bf3e7
bd226916
ba623798
3cae7d56
bd35c076
bc7e3b04
bc8198f2
bbfb7c0d
3d5edbf9
3cecca2e
3d784556
bcc5d639
3d4d35a8
bd46de76
3d6e2110
3d4ea077
bcd69b17
bd5b8cb9
3d258927
ba3f5e24
bd27c9de
bd11287c
bd1b2d4d
3cc07464
3cfb7415
3c8811b2
bd5a0169
3c959c49
3d394749
3d370585
bd5d6063
bcc1fc8f
3c0d9ca1
bd58b828
3c868124
bcfd805e
3cf79e9d
3d41f31f
3d5c022a
bd344b2b
3d83558a
3d571f36
ba85fb57
bcefd439
bd112770
bcf2f124
3d43126f
3d5fff7a
3d213d32
bce9b9d8
bc9af9ec
bc94a6ec
bd74794f
3c751aca
3d784fd3
bc8e4324
3c02d029
bc772b45
3b6717d2
3cec2ce4
bd66c6de
bc255d1c
3d061f9f
bd058256
bc4ad14a
bd1d4c77
bd434a02
3d5084e8
3d45c78a
bcd32831
3d42cb21
bcf84ec6
bca8ef78
3d3ef5a9
bd3ad3a6
3bee4c79
bd356649
3d08d5c7
3d0b74de
3d0a600b
3d13122b
3c87ca64
3d054046
bd3ba451
3b5eea06
3d045fe1
bca03c4b
3d1a8ef7
bc266dbd
3d5fa97e
3cbd5dc4
bd6d2ed8
bd069f8c
bbe6fb4c
3c80a7c6
bc829069
3d364064
bd380022
3d414834
bbfbf9e1
3c7822bc
bd70307f
3c8e4756
bd0ef673
3c21aae0
3d32d1af
3d26516e
bd609cc3
bca9478d
3d18750c
bb9c8bbc
3d2bb129
bc0ec596
3d4eac00
3d1056c5
bce1565c
bd53293d
3d3a8d65
3ccb33db
bd3f37b9
3d1f3c71
bc9d68c7
bd46fcdf
bd5080b6
bd0636b1
3c37f9d7
3d0a9bd0
3b91105e
3d195140
3d5f3a58
bc92dfd7
3cf3f962
bbab6142
3c9e3a7e
3c3c01a3
3cd62bf1
bc7c115e
3d5e1199
bd06f694
bcf6683c
3d49acbd
3d01db01
bcfa1a0d
3cf6bc1f
bd69de8b
3c982cb2
bc753826
bc51f1d0
3d01e9af
bd2ae18b
bd0202da
bb0ba189
bd22552a
3d075b3e
bd41cc53
3c026b14
3d389720
3d6f1cb9
3d3ec786
3c72cf96
bc35f5f1
bd0092cd
3ce82f94
3b729eee
bd1798d9
3d3227d0
3cfddebe
bd7441bc
bb5b6d7a
3c6dbf8c
bd0577d9
bc67429a
bd4532a5
3cd7d7c3
3c5db984
bcc2784b
3cb2617c
bc8fadf3
3c4aeea6
bc8f27bb
bd226c3c
3c1f8643
bcf162ae
bc53ae68
bd37c244
3bb8b76c
3c1afc05
3d18b0d1
bd061416
3d5eaee2
3d3508f6
3c4508b3
3d0cc038
bc9f9ad0
ba14746c
bd7e5322
39d50352
3d03d252
3d3fad2a
3d3b2dd3
bd0342ab
3cf63800
3b7bf5af
bd1ecf64
3c7d0071
3d4eb463
3c248f97
bd65cf68
bd35104d
bc7e36d2
bd39ecf6
3d50a45d
3c8d2a20
3ad06431
bc3352a8
bb96a84e
bd23a190
bb76a360
bcacd5b7
3d56ece1
3c4ff64d
3b9548d2
bd4052d6
bcb46349
3ba9478d
3d09f40a
3d2f36f0
3cf68167
3d33e89b
bd129bae
3d0f4d7b
3d3c5048
3cdbb7b7
bd21bf38
3d3dd65a
bd45cdd5
3d522963
3ce88df3
3d3e21d9
bd3a43fe
bd2bb774
bb0bbc61
bc35aa71
3c5f6556
bd859210
bd4128bf
bcbbe22e
3c1b152f
bc7bb0e6
bc1e5a5e
3d5f2cb6
3d16f545
bc5798d9
3ab277b7
bbcb4f1e
bd30c997
3cdcca71
bca0a0f5
3d4c5005
3d157cd4
3cc63ae2
3c304684
3c8fe261
3d63e4ac
3ce8d328
3d5e529c
bd6ec398
bca9b068
3a31a702
bb621cc0
bbcdad9d
bd80ffda
bc95c854
3b0cd48f
3c8ae105
ba33cf50
bd6424a2
bd49bb6b
3d74538f
bc535654
3cf739f3
bd070fbf
3ce514c2
bd45c359
bc4c0379
bd4e94ee
3d106035
39fddd91
bd4d0892
bd1f5169
3cdde376
3c893965
3d300ffe
bcdeb95e
3d05de9c
bc794424
3d5084e8
bd07852f
bd4cf28c
3d4a5269
bd514b16
3d346562
3d0e0daa
bd0a6b94
3c75c6c1
bc4a3e7d
bb2c174b
3d128d00
bd10edc4
3b5d2d6d
bc887875
bcf544bb
3caa38b9
bd1513f9
3d5656ef
bd4f8833
3d529ed4
3ceccc47
bd207c42
3bc10bce
3d1d041d
3cf72b45
bcdca07f
3d362739
3cf61aa4
bd146f58
bd156d1a
bb5b75dd
3d22f9ca
bc32e169
3d18904f
bc370692
3d5a9a80
bce8b7e5
3cf57b42
3d67f801
bd1a2f8c
bbb4de99
3cf1f794
3cba01ef
bcfdcbde
3d01dd1a
3cd204b0
bd07f349
3d77bbf9
3d3078d9
bc9fc8f3
3ba98d2d
bd378034
bd65e248
3d437931
3d7becab
bcb52652
3cecf851
3d31d4fa
3c35c7ce
bbe09932
bd2c1d2a
3cf82907
bcef8ceb
bd2e9036
bb558fea
bd3076c0
3d251e32
3c1c8217
3d445fe1
bd6a0a96
bcbd188f
3d11c5c5
3d085f4a
3ca9aa1d
3d33e78e
bd5171e3
bbf796a5
bcac42ea
bcaf5ba3
3d222f6a
3cdaff2a
bd2fed63
bc866e44
bcd21dda
bd467ad9
3d03f0bb
3cad4b27
365b48f1
3ccdbbe0
bd1f43c8
bd257a78
bb325629
bd43558a
3b2ce5a7
bcb30510
baa67cd7
3d80dc33
3d67a0f9
3cbc408e
3d391d58
3d0140dd
3c9c475e
bd29c23b
bd0a5bd9
3d2f1023
3d1bca97
bd4893b8
3d397fe9
bd0b5cc0
bba1cfc9
bc42e33f
bcaf038e
bca51e32
bcf5dfec
bcda4acf
bcc5f17c
3d5eadd6
bcf993d5
3c431162
3d561e4f
bd5f394b
bc9fcd25
bccb85a5
bbfd255a
bcb5b707
3c6cbb80
bd4b88ca
3d0667f9
3c5a1ec5
bc2a087d
bcd933e3
3c5d8f93
3d213f4b
bc213936
bac5832c
3cc2c3ca
3cb0c459
bd34eb9a
bce3e6c5
bd564841
3c9d7dbf
3cb1d0c8
bcdfe111
3d4b44a2
3d4f91a3
bc7d9770
3d6ea748
bcd13b5c
bd1c3372
bbde1778
bd3dccea
3c142db4
3d7d9125
bd04cbe2
bd68ccde
3d1769a9
3c522425
bd6d117b
bd61986c
bd5bb16c
bad21866
3cdbe3c1
3c225022
3cc6e2a8
3ccf4e87
bcdbc233
bd312b1b
bccb4f1e
bd249a13
3cf49060
bc6bc409
bb86dcfe
bd6c4a41
bd34e011
3d51c9f7
bd676d98
bd4d8dbd
3b55588d
3bcf9d62
bc4918e3
3d15a07b
3cc7496b
3c6d3954
bcad55a4
3c8f98fa
bc693e1d
3bf2211a
3bcea1b9
3b257dd3
3d6e2110
3caeec7d
bc630caa
3d33311a
3c191728
3ca50b52
3d529670
bd526e98
3d20aa65
bd4c0f02
bc89c5e7
3b8d533a
bc30a2cb
3d6704bc
3d896feb
3b8e0d74
3cb3764f
3d6b430f
3d229e90
3cae275b
bce412cf
3d592535
bcfaf20f
bc84944f
3b80918b
bca8eb46
bd181f10
bcfbd274
bbaba387
3d5fa54c
3d2d6883
3ce0ed81
bcf4794f
3c13ba5d
3d38e6d1
bc08920a
bcf8b7a2
bd482be9
3d15c316
bd1477bc
bd0d727a
bd4dc012
bcfe542e
3d2d6a9c
3cf8df7a
3d5c3dee
3cc2a887
bc105ac1
bd46759b
bb71800a
bc8765ba
3b5aaadc
3d0c63f1
3c1c8572
bd00bcbe
3d32d906
bcf7f499
bc2ae6c9
bc723465
bc426dce
bc4b5350
bd3be015
bd66f502
3c35f1bf
bc88f649
bb2ed7ef
3ce18266
3c834b0e
bca80f13
3d24851b
3c7d2631
3c77835a
3ba2c08a
bcacd5b7
bb0c769b
3d6dd7aa
bcd85597
bd22a5e8
3d398e97
bd668a0d
3cd143bf
3ca2d730
3a05a774
bd148777
3d7fb69a
3d5aea31
bd0e453d
bcf214f0
3c4829d0
bb6712c9
bd3d944b
bccc1659
bccb70ac
3c8c1fc9
3bcc50a6
bd5e310e
bcc1700d
3c6fbb0e
3d4c48ae
3d88de2b
3d2ba062
bd073040
bc3328b7
3c8bef8d
3d59b1b8
bb3435fd
3d2b95e6
3c86d506
3c883fd5
3cb95a29
bd47991c
3c7a69be
3d4ed0b3
3d6e1ef7
3d193b3a
bd135116
3ca89119
3cf95b36
3d4ad688
bb9c12f1
3d44c272
bd5caf2d
3d096aad
3d37457c
3d0a73f7
3d884945
bcb328b7
3d83315d
bbfa0bca
3b177278
3d30de8f
3bd12d85
3b863894
3cc56f76
3d6705c9
bd4fbeba
3cdbbbe8
bd427200
bd127a20
3d04e832
bc900e6b
3c589481
3d345e0b
bba875d5
bd007464
bbbdefba
3d1e2de8
bd664f55
3d0df04e
3d57774b
bcde58e6
bc8539fc
bd23443d
3ce043a2
3cb2bdc2
3d134ce4
3d390108
bc9d53ce
bca67408
bd228241
bd327aa7
bca647fe
bcb5781c
bc3502ac
3c9dabe2
bcd9c27f
3c4d0785
bce74f2f
3d2b6178
3d74a01b
3d6425af
bc576252
bb9b03fd
bc82278d
bd344d44
badd89b3
bd44a0e4
bd27685a
bb955490
3d839820
3d0fd5cb
bcd21dda
3d395d4f
bc717375
3d65a145
3d956085
3cd47e07
3c2b53d6
3c04e395
bd460675
3c3fa094
bd055a7d
3c8b2852
3d64d4cc
3cadb403
3cfaa25e
3cb33333
bd37739f
3d4b9885
3c762f9d
bcc2f1ed
bd6dbf8c
3d1caf2d
bd3a1b19
3c0a5acd
3cc75a32
bd46d3fa
3d36aa4c
3b284f3f
3c373d19
3c580e49
3d6cb103
3ceb6391
bcb46fdf
bcd02689
3d463e08
bd5d27c4
bd3e9531
3d5872f3
3d254a3c
3ccc8ffc
bd1e3da3
3c80841f
3d02e664
bcaea0fd
3d559924
bc3aa583
bc51f601
3d325c3e
3c1cd0f1
3d69014b
3d6b5e53
bd2a6d26
bd170b4a
bd1f0e4e
3d6f09d9
3c99c172
3bf1828f
39cf5f23
3d74b945
3d4d759f
3b12e2c6
bcd4a3c6
bd4fd19a
bd20fd3b
bb9b5632
bd532e7b
3c1ee1d8
3c302928
bcc9f948
bcd805e6
bcb0574b
bcd7774b
bc3dfd26
3d0193b4
3d21fe22
bcbab431
3d445565
bcf911cf
3ce18aca
bd4a7c5b
3c0018bf
3d1045fe
3c8e581d
3d200086
3d35f3d8
3c851c9f
3ca77814
bd060781
bbb55fc9
bcd8255b
3d03d46b
b9db0c2b
3d167caf
3aa4a05e
3ca2fad7
bd02e98a
3d24fb98
3c65796c
bc49bc77
3d47bcc3
bc7f8ec1
bcf09b74
3be7db46
bd062f5a
3c122d95
bd216b55
3cc2acb8
bc43d684
3d227d03
3d2600b0
3d518e32
3d0cd424
bc43b4f6
bd36c15d
3d3d5022
bd73ade2
3d539b89
bd44fb12
bd0080fa
bd3c7a3a
3c8e7ff6
badecbd3
3cc810a5
bd2e31d7
bc69a6f8
bd0dca8e
3d4857f3
bcd2e947
bcf3d3a2
3c110f87
bc84ccee
3d510c2c
bd402f30
bc8fffbd
bc833a47
bc2da33c
bcfd8cf4
3d38a19d
3cab92c0
bb13609a
3d2732df
bd2e2004
bd662670
3d5101b0
bceddf01
3d5b7e0b
3d60b2c8
bb6374af
3caff6d3
3cf4299e
bd612945
3cacb210
bd51ba3d
3d371865
3cc03793
bd0e2d1f
bd2d7732
39392db4
bcd07208
bc8ff759
bc8d2807
bd2bc0e4
3d52ae8e
3c8533b1
3d22a5e8
bc68ab50
3ccea6c2
3b12a158
3d520afa
bce6d15b
3995d366
3cb26395
3d010e88
bc6e7818
3c01f96a
3d08d9f9
baf81e8a
bbb50a38
3d3ffbce
bd4998d0
3d0c1440
bbba2cb7
bcbec461
3d0d22c9
3d302f73
bd1b9c73
bce8be2f
bd241d4b
3d2b6d01
3bc04428
bd05baf5
3be53148
bd6b734b
bd31a08c
bd4c8bca
bd1629d8
bd0523f6
3cb48b22
bd4c5437
3c617a03
3c7fef39
3d0e67d7
bd157bc8
3d2ca149
b93b5ebb
3ccf0521
3d0e8640
bb8c9900
bd2cb31c
3d079e5a
3d212620
3cbf2f55
3cecc3e3
bd404966
3ca02b84
3d5906cd
bd25dd09
bcb9e6ac
bcf47d80
3d2ef0ae
3b5135e8
bd58f92b
bd6efe50
3d56c82e
bc0c8c6b
bd38726d
bd5335d2
bd393dd9
3d352008
bc431162
3d6683c3
3cd53693
bcfdeb53
bce3779f
3d4b44a2
3d0eef1c
bc7b0d52
3d54cdb8
3d42235b
3c9691a7
3d4f6274
3c313598
bbcd8b39
3cb70ef5
3d3c126a
3ca03819
3d193e60
bce1eb42
bcd5d80e
bd291750
bd61ec4e
bd6e89ec
3cdcd4ed
bcce3151
3d087768
bc7d3b2a
3d6aad1d
3d390a78
3cebf877
3d408d8f
bd2148bb
bd1d5a18
bd4b9778
bc40724b
3d5adfb5
bd633df3
3c6d7c70
3c858149
3c7e4bcb
3d443c3a
bd3cdcca
bbcb6417
bb8a62c5
bc9a133c
bb68bb40
bd67a637
3c5eca25
bae764ff
bcbd1cc1
bcd783e0
3c85be1b
3c9934f0
bd0ede55
3ced02cd
3c864cb6
3cf789a4
3d16bca5
bd2e019b
3bcba80a
3d5a3d2e
3d6b95e6
3d262aa2
3d2f9ca6
3a1a50fa
3cbd5348
3c289b95
3c6514c2
bc5ca4b1
bcfaacda
3c9908e6
bcd56f33
bbecc667
bd2b7671
3d64180d
bbf0eb90
bc529995
bd3a3b9b
bc04b1ab
bba7f074
bc1ddc8a
3d2f4be8
3cbd20f3
3d1f7e80
3d2d9dfe
bd1f70df
bcba81dc
3c25ca2a
bcb6c9c1
3d46b8b7
bcc96894
bcd9ba1b
bd5df117
3d09b307
3d4d727a
3d6f2e8c
3d6db835
3c226a23
bd35b1c8
bd53d966
3cc306e6
3cc4827b
bc5af07c
3cc052d6
3d150b95
3d2a6b0e
bc5f04de
3d58a00a
3d592104
3d5f9bdc
bd806e1a
bc61fc09
3d30ff11
3d321816
3c84295a
3b52c02c
3d7ef7c2
bc838e2a
3d63ab00
3d32bbaa
bd15842b
3c896feb
bd50342b
bd41376d
bd3480a6
3d2ab368
3d6f2410
bba06f77
bc845dc8
bc57dbf5
bd80b6fa
3d0ddc62
bc315f89
bbc12a01
bd4f5f4e
3d5a5764
bd34506a
3c7633ce
bd1a9fbe
3d584902
3cfd5454
3cdc2092
3cbacf74
3b6e73e7
3d689dae
3d63cea7
bccc8ffc
bd59c9d6
3bb72749
bc763800
bd2f6e83
bd41ebc8
bcdd1c3b
bc721f6d
3d3fde72
bc8b630b
3c97a461
3be0f21e
3d5c0ebf
bc8a58b4
bc637de9
3c35286b
bd0bef8d
3a812732
bd4c8473
bcff1950
3d5463d0
3d21dead
3d1931ca
bd680f13
bcf0a5f0
3c9ed9e0
3d5cf67b
3b29fcbe
bd2a6091
bd1f2cb6
3d722f27
3c86bdf5
bcebcc6c
3cc710cb
3cabcf92
bae9c0f9
3d3749ae
bd2c98e5
bd26ba49
bd01f85d
bc7487fd
bc0d5b9e
bcdb35b1
bcbd33d3
bd1ea466
bd2d783e
bba7942e
bc492147
3b2cd9e8
bd0f14db
bd66bc62
3d50ff97
bbe8f44b
bd6cb210
bd03a861
bcddedf2
bcbfe5c9
39908d2b
3d1ab6d0
bd016df4
3c8e53eb
3d67b3d9
3ce4430b
3ce9ab2a
bd09a134
bc4bf2b2
bd166be8
3c3bcb1d
3cab063e
3d294142
3a1e5a74
3c976ff4
bd148dc1
bd066b1e
3c404428
bd1460aa
bb9f1d67
bd5ddd2b
3b0d8b6e
3d2b14ec
3cfd4174
3d327568
3b855f50
bc21c25d
b928f252
bc6c636b
3cdf7404
3cca3c64
bc0bb4d5
3c77be12
3d1e6ddf
3d64a383
3d091e21
3d5d840a
bd44e50c
3d594d0e
bd1b8130
3d558538
bd35e95b
bb5716d3
bc906ee3
3ce0f7fd
3d3ef9db
3cfd805e
bd5ea359
3b917284
bcfabfba
3d4e64b2
bcec6584
bd50e12f
3d2e2b8c
3d1d8f93
3ce9be0a
3d567019
3c6ed45f
bb932866
bbdc2f40
3b33a762
bb3c68d1
bc36177f
3d6da76e
bd45b5b7
3d07db2b
3b3f1db8
bb6da082
bce5fd8b
3be44fa0
3b517e0c
bb889dc9
bcfe49b2
bc1e5c77
3d07db2b
3c0f35fe
3d1abd1b
3c48c0cf
3b4fad52
3cf53826
3d5d7fd8
3cb0fcf8
bd1b5c7d
3d4c4bd3
bd357e67
3d2696a2
3d4bbe44
3c9cf13d
bd3e77d5
bcbb2357
bc59a522
bb96b40c
3baf79d6
bd22b6ae
bd27546d
3ce9d94d
3cc3cc08
3d54db59
bd1102bc
3d06df83
bae2bdd0
3d3866e4
3beeb3a7
3d6b27cc
3d12be49
3d4b8499
bcfe62dc
3cdf4a12
3c4471b4
bce9e1b1
bcc4827b
3d53c793
bd1dfca0
bc301861
3c4e3de6
3cb5bb38
bcdf8099
3d28f7db
bd0c32a9
3c55ae1d
3c7f7dfa
bd0bcada
bc46eb0b
3d37542a
3d0984e4
3d0fa7a8
bd5ac040
bd3b6673
bd215337
3d210386
3c3b6241
bcf583a5
bd2d2674
bc9e9292
bcb760bf
3bcde856
bd6456f7
3d0b2852
3c279357
3cd12ec7
bd2cabc5
bbd1fbe1
3cbf0baf
bb8a994c
3c805c46
bcd9f905
bd1888f8
3c864239
3d88b9fe
bd49081c
bcaee419
3d487443
3d292817
3b2dd088
3ad83409
3bb53785
3d71098d
3ceeae9f
3d632e38
3aa39093
bd18665e
3c67afa7
bd3a5b10
3c95b9a6
bc8010c7
3cc24c40
bc7661f2
3ccae85c
3d05d313
bc817b96
3c919ac8
bd3ec56d
bd18f92b
b890b5b4
bd28027e
bc265061
bd1b25f6
3d4afe61
bd365882
bbdc0046
3cf8811b
3d26aca8
bc20c720
3c9e731d
3c5f3301
bd1a61e1
bc2b8a5d
3d4b61fe
3cfdaa50
3c9e1b09
3d5cbbc3
3cfe9fae
bcc6a5d7
3cc97d8d
3d5612c7
bc1179a5
bd42afde
3d061d86
3d2658c5
bd1d8516
bcb0c88a
3b8cd48f
3d1ee137
3d765cb3
3c9c193b
3c6ae18b
bd11e647
3d280171
3d28fe26
3d4fbfc6
3d431f04
3d3ef6b6
3c91dbcb
bd4a71de
3d38b47c
3d4a03c5
3d5fa765
3d0dbdf9
bd24f766
3d09dbec
bca44c7b
3ce48c72
bcdc0b9a
bcb5aea3
3d48919f
bd7ab325
bb68f5f8
bcb85404
bce9dd7f
bd346456
3d43c8e2
3b89de3b
3c35525d
bc7a3769
3d72bdc2
baec3116
3ccfaace
3c8c825a
3d630121
ba754b1b
3d2ddf01
3c5ff823
3bb47b9d
3c8620ab
bcdaea31
3cdbdd76
3d32f556
bce7ec78
3cc62a1b
bd6ed139
bd6e2542
3c99a62f
bd0d184c
bcd14c23
bd0da6e7
bce7d34e
3d40841f
bcedf1e1
3b130b0a
bd1f212d
3c688df3
3c499f1b
3d25204b
bd2070b9
3c338d61
bcc8a7a4
bc648627
bc750a03
3cc32874
3cdc4eb5
bd5ce39b
bd192a73
bd4917d7
3d455864
3ce8038a
3c93db7f
3d21f5be
bd761dc9
bcfc8b00
3d17b203
bd5c6195
3d42abac
bcc449dc
3d1bb491
bd2f0282
3d2108c4
bc6f49cf
3caf05a7
bd80431c
3be062ac
3d3777d1
bcbdad75
3cdfa227
bd3c6003
bcded070
bd4ff972
bc5523b3
3aa785eb
bd49a77e
3c92ee85
3d3bba56
3d3ef9db
3ccf69cb
bb5cf7bd
bd28b7e5
3d72c0e8
bd13c46e
3d09331a
bd3e33ad
3cdb22d1
3b0f2679
bc1a6f17
bd34e22a
3d0cdc87
bd2bfdb5
bcb9042e
bcbc03bc
3d2a6d26
3cc6088d
bceefe50
3cb078d9
3c373d19
3d3faa04
bd7c2118
bd1c7150
3d42cd3a
bcbbd9cb
bcd55608
bcba322b
bcf8fcd6
3c78f8a5
3d60ac7e
bd081d3b
bd571d1d
3d026fe7
baf60fbc
bd0e1933
3c7f8ec1
3be3be81
3d51105e
bc813661
3cd99cbf
3c167df1
bc84e619
3cc97fa6
bd00b674
bd07442c
3d1f1bef
3d4c20d5
bd21c25d
bc224e09
bc4efaa4
bd2deebb
bc489f41
3cbd4281
b9311003
bd262670
ba911567
3d10b1ff
bc9c8649
bd60e94f
3d318ca0
3bc3b349
bd201cd6
3cd59b3d
3d244630
bcce1e71
3d5260f6
3b6da082
3cd12663
bd22ed35
3cfcb924
bcab5808
bc24acf3
3d46ae3a
bc813ec4
3c9014b6
3cceb570
3d1e364c
bd1c1b54
bd82d949
3d39a390
3d16d4c3
bcdd8b61
bd3f5621
bcbf8fcd
3d07e069
3d449342
3d16f86a
bb90fa8f
bcc1e365
bd4d3177
3cf85d74
3d2bc1f0
bd55097d
3d36c15d
3d230447
bc88cc57
bbb2ae3e
3cb9ef0f
bc3c33f8
3d1d5e4a
3d532b56
3d266128
3c8d7bea
3d2ff3ae
3c8aa21a
bd214270
bd560200
bc4ebfec
bc0dafec
bcfbaecd
3d29bbf1
bd7bf402
bbe95d26
3d6ad2dd
bd6f5fd4
3c8aa433
bd3e48a6
bd1ca9ef
bd4f4624
3cf84ec6
bd28c261
3d22f9ca
bd59641f
bccd6c2f
3cd5c0fd
3d09efd8
3d55d5f5
bd69eb20
3d4efed6
3d2b8306
3cb1f46f
bc14799f
bbe16434
bcd1d68c
bd4a3726
bb17fdb8
bd4814d7
bb8c494f
3caf6838
bd1eaee2
3caa53fc
3d5f3301
bb16e8e5
bd682a56
bcb32ad0
bc1b17b3
3cbf0fe0
bcddca4b
3cef587d
bca73d5c
3c292e62
3cfb99d4
3d4bf3bf
3d44ed70
bd52e947
bd13ff26
bc76ad71
3d4723ab
3d5ce4a8
bd42f61f
3cebd902
bc8e043a
bc962ae5
bd06002a
3be93335
ba06c0a4
baf384c7
3d3d77fb
37596ec7
bd21f18d
bd0bf8fd
bc73fd93
3d596207
3d4bc59c
3cc48063
3cb5696e
bca6c5d2
bd0e7792
3c4f5b1d
3cf2f987
bc2d9ad8
3c9b7bf2
bc455001
bcb44a1f
3d2f416c
bd4816f0
bc483ec9
bcec2efd
bcb1ad21
3c5801b4
bc0b7ca0
bd18bd66
3d14898f
3d549f95
bc35c7ce
bd1a1fd1
3d503a75
bbba2b0a
bd327cbf
bd701fb8
bc566278
3c68ff32
3cc71f79
3c7cac8e
bd73a798
bd31d606
3c4254a4
bd74cf4a
bd69680e
3d245f5b
3b97254b
3cc8de2b
bd2a91da
bc3bf0dc
bcbce853
bb7a3ac4
bc2220bc
3d63b03e
bd0be1eb
bd0f96e1
39f5319b
bd592a73
bd725c3e
bd197a25
3d20a527
3c2a4335
3bafb20a
bd530ced
bd58fc50
3cd33f42
bd22467c
bd0432ca
3d3f4cb2
3c23959c
3b590413
bc5aa4fd
3c9f2991
3be9d6c9
3d3ee4e2
bd7a98ee
3b5dee5d
3c27d242
3caf05a7
3d565908
3c5b3398
bc7b480a
bc7d199c
bcc5803d
3d1cd706
bc8e9b39
3c0db8bb
bcdb4246
bca6dce4
3c3d5992
3c2df71f
3cdafd11
3cef6d76
bcdcb578
bc3573eb
bd6eb3dd
bca708ee
bc226b65
3c832fcb
bd155c53
bcc560c8
bd57ff9b
bc2a9718
3b4b7d41
bcae2da5
bcea1c69
ba0ae8fd
3d01ede1
3d10dae4
bc8880d8
bd356217
3ac6426f
3d525892
3c265cf6
bc0083b3
bccd184c
bd1e0f80
3d2719b5
3d305a71
3c95feda
3d0c069e
bd13c9ac
3c45197a
3cb46562
3d524f22
bb14218b
bd731a09
bc532c62
bd386d2f
3cb15f89
3c466d37
bc9e03f7
3d399a20
bc4b20fb
bd308356
bbd47f49
bd71d0c8
3d5a8cdf
bc950b95
3d0b75ea
3cdb1c86
bd361ed6
bd6a1e82
bd3c73ef
bc6fbb0e
bd68e0ca
3cb24639
3d2e5259
bd4a82a5
bd295747
3d55a3a1
3d0f2389
3d43d146
3cf71865
bd05f6ba
bd30f6ad
bc47b45f
3d66f71a
3d4259e2
bcfe38eb
bd048f11
3d1d041d
3d023422
bd47d1bb
bc493ea3
bbe3a1fb
3d3cd142
3d133a04
bca2db62
bd1d96ea
3d24a383
bb4b153d
3b5eca25
bd39841b
3d6ce571
3c9ac797
bcfcdee3
bd644524
3d3a8827
bc6e2867
bd1a836f
3c89d495
bcfb677f
bd0c5650
bd0f3cb4
bc8a19ca
3d503c8e
3c7062d4
bc9adc90
3c1d7343
bc03c3da
bc713cef
bd5c64bb
bcf4751d
bd3ead4f
3d4e10cf
bc14df20
3d190f30
bd244c7b
3d4dd830
bd049ecb
3d1285a9
bbea82c0
bab49e02
bb9e8816
3a61a6a4
3cc7a398
bc577b7c
bb1399a5
3d3f1b69
bd3df7e8
bc8094e6
bd39d4d8
baf89ab1
3d187a4a
bce26d48
3d004fb1
3d02d59d
3d112663
bd2275ab
bbb4df70
3c01e838
3d358e22
bd0e043a
3d5a6f82
3d037d63
3ba54aa8
bbbe8a14
bd68f29d
3d5e68a1
3c2cde1a
bd5fc4c1
bb5f8b15
3cb2e382
bd6e3715
3c9bfbdf
bd511cf3
3d599aa6
3d280171
3ca11ec9
bc72452c
bd1045fe
bd5b63d4
3d43fa2b
ba0ccedb
bb932003
bd1cfdd2
3c19a771
bd150657
3bee8d11
3d51b2e6
3d179bfe
bd2b93cd
bbe0d66f
bbef7645
3bf18365
3ce05ccd
bcba6267
bcda5daf
3d1591cd
3d634ca1
bc2c6cdb
3d6310dc
bd506cca
3c30a6fc
bc848388
3cb68ad7
3d5159c5
3d397679
3d1bd945
3d4a30db
bd5ad645
bbf26a15
3b24a20b
bd242d06
bd18383b
3d48b652
3d26afcd
bcee136e
bc121e7b
3d355150
3cdc853c
3d6dc7ef
bd5e6ff8
bd23fdd6
bd467ad9
3d2c386d
3d227e0f
3d4814d7
3caf4cf5
3d55c316
bcd6c2f0
bce6234b
bd4cb07d
bc94e3bd
3d27e62e
3bc15825
bd2c29bf
bd0c1fc9
3ccd78c4
bd34751d
3d0b912e
3d2d2780
3b67ceb1
3c99524c
3a11262e
3d158c8f
3ce38c97
bc052cfb
3d68c47a
bd165f52
bc7fef39
bd16d5d0
3cbaeab8
3d3f1737
3bbd4068
3b0007f8
bd3d87b5
3d02517e
3d155c53
3cd6fda8
bd669ad4
bd67d029
bc98ac9f
3d500714
bd4c7f35
bce7125e
bcfec56d
3c07d475
3c85a709
3d3be33b
3d2ba494
bd4383ae
bc91a976
bcb2bdc2
bc8793de
3d4cd63d
bb276cc1
bd64095f
bc52aa5c
bb2d977d
bcf4d595
3d00a394
bcd523b3
bd2469d7
bb3bbc03
3d6f1993
3d459210
bd209353
3a4b2f69
bd730404
3c544dcb
3d269ad4
bc80da1b
bd07dd44
3c62f380
ba7287c7
bc51bf7b
3c94727e
3d80c6b5
3b3ec67a
3b3a11df
bc843e53
bc17b5ff
bc87b99d
bd1cad15
bd0201cd
3c7950b9
3d484c6a
bcee6b83
baf5034d
3d54e5d6
bc50fe8b
bbb8d59f
3c7bd274
3d54b8bf
bd473bc9
3ccc89b1
bd1d50a9
bd36b1a3
bcc03bc5
bbe878fb
bd0012e0
bd435dee
bd1105e2
bcb89d6b
bcc794ea
3d06a1a5
bd6e88df
bbf05dcc
3c3f6a0e
bd38b9bb
3cc7735c
bc9ea9a4
3c06cbcc
3ce1975f
3ceb0532
bc72ae08
bd3e8577
3d3cab82
3d0c7d1c
bc907747
3d2d5172
3d167558
3d37c99b
3ced5ae2
3d1faca3
bc7aa045
bce10add
bbed7691
bd3630a9
bb9283fc
bce14595
bd381a58
bbdb303d
3a8783ed
bd0f6be3
bd5119ce
bd4a72eb
bd5e3da3
bbb5540a
3d54067d
3cafcce2
3d5784ec
bca27d03
3d656367
3d301a7a
3c4a8e2e
bb407c5c
bd0fbb95
3d2ca362
bd28dfbd
3d35e636
bd144cbe
3cf5e84f
3d799913
bd15e072
bd44ec63
3ced6345
3b16f9ac
3cb6a401
bd3b4a23
bc679ee0
3ca5e13b
3cdc1e79
3c8cf5b2
3c4868ba
3cffc760
3c7b6135
3ccc0bdd
3d5ed4a2
3d100d5f
bd3b42cc
bd6fb8f5
3ce6cb10
bd5ba1b2
bd675ddd
bc78c650
3aa6b93d
3d2e1262
3bda795e
bc995ee1
3d21c79b
bd11c6d2
3d4fb00c
bd0346dc
bd211a97
3ce3c105
bc8a137f
bd1c5825
bd0e6080
3accf511
3d3607c4
bd39884c
3ca64a17
bd77bbf9
bd6a94ff
3d30318c
bcc56d5d
bb8c51b2
3cd13511
b8b7f3a2
bd1f3b64
bd4dd2f2
bd19439e
bcbd102c
3cac4d66
bccf54d2
3c92c8c5
bca493c9
3c5cc20d
3d1a88ad
bd77ea1c
3d2df938
3d0ed0b3
bd4f3344
bcd16335
3d245b29
3d15d80e
bd48711d
3bc1516f
bd616e7a
3cd76039
bd6d245b
bd7877ab
3b3abead
bd0d9620
3d450481
3cae3822
3cb599aa
3d469a4e
3c137b72
3d51dcd7
bca21640
bd20e842
3d7649d4
bd5438d2
3bb99b98
bb4cf363
bd2595bc
3d5bc665
bc721709
3cd8c4bd
bd663737
3c6b24a7
bcebce85
bc8f6cf0
bc1a989d
3d12923e
baae1a5a
3d262025
bd61be2b
bcde7c8d
3d2a0ec7
3bf884e1
3d05e6ff
bc919ac8
3d5d7a9a
3c808c82
bd1e4a38
3d41cc53
bd0f4949
3caccd53
bd2cc5fc
bd4bd231
3d603600
bd59567e
bbf76379
bcb45cff
3d8c74b8
3d8c692f
3bfc5cdd
bcc9c4db
3ca59e1f
bc66ea85
bd68ccde
bd011f4f
3cb2b778
3d24e7ab
bcaaf145
3d6b777d
bd6ae6c9
3d27ec78
bc7b9bed
bd6b8844
3ccb7b29
3c54994a
3b2ab6f8
bb6abca2
3d612514
bb1984a1
bb0f71f8
3d051b93
3ced8d37
bccc07ab
3d08398a
bca34224
bbaf195e
bcb4efcc
bcce1c58
bd3cd78c
bbbaddb7
bd18d36b
3ca1ccd9
bd612f90
bbbe9bb2
3d284381
3d0e9b39
3d567664
3d6e2fbe
3d3cf80e
bb54d90b
3d281776
3d9a426c
3d804af9
3cd10907
3c97efe1
3d34373f
3cae9681
3cfe64f5
bd5b035c
bd630fd0
bcd6a162
3d0fe154
bc502cd4
3d1a49c3
3d2d490e
3b87ddaf
bc8795f6
3cbb01c9
bd624cc7
3d117a46
3bef72ea
bd4b3a26
bd3adf2f
3ca4ca4f
3d5e3865
3d23400c
3c98ce2d
bd135116
3d186ca9
bd4b34e7
bc86290f
3c8398a6
3d231a4c
3d5f5169
bc280496
3ca9cfdd
3cb59147
3d68283d
3bff8a8f
3a052b4e
3d3359ff
3d224463
bcb547e0
3d1a1449
bd4ed3d8
bd4d716d
3b81f2b4
bd536827
bcdc2b0f
3c043ebf
bd5e6ddf
bd3bd599
bd58b71c
3d5f383f
bd62ef4e
3bf483cb
bca4e37a
bc734d6a
bd5ee243
3d39346a
bd4203e6
3d53d103
3d16e265
3d38e2a0
bd09203a
bb940d69
bd5a9867
bd42bd7f
bd77a2cf
bd13ccd1
3d1fbd6a
bd07fdc6
3d4282c7
bb81252f
bd2fff37
bd077dd8
3c885d31
3bad09b9
3c576ab6
3b21cef2
bc83eea2
3d37ff15
3d0929aa
bc021a8c
3cc0639d
bc94ee39
bd196fa8
3c87cc7d
bd62eb1c
3d49906d
bc470004
3d43d146
3c695b79
bcf5b5fa
3d073472
3cef5233
bd182fd7
bcb3b539
bd125892
bd338716
3b615bd0
bcf212d7
3d84430b
bd2bacf7
3c49afe2
bca80f13
3d58a655
bcab40f6
bd509f1f
3b941271
3c76598e
3b691934
3d0be0df
3d0dee35
3c1c6668
3d4b9453
bd094706
3ccc8ffc
3d5b0ccc
bd647cb7
3c0d8d87
bd603f70
3b030a0b
bd169d30
3d3a7a85
3d720fb2
bd406f26
bd3a6699
3c749060
bd17fe8f
bd72b453
bd60c6b5
3b4f46fb
3d2a1d75
3cd06141
3d755476
bd4f5a10
3d431bdf
3d0055fc
bbd23fd3
bc83968d
bc147dd1
3cb80cb7
bbabf40f
bd677b39
3c18e89a
3ca582dc
bb26223e
bd3eb7cc
3cec1e36
bcc88c61
bd541312
3d171d1d
3d470111
bcf1fff8
bd27a95d
bd785d74
bc79335d
3c08ef93
bb2ff526
3c824f66
bd163ed1
3cf4f50a
bc7dac69
bd01e57e
3c99b4dd
3d5b2a28
bd5b1c86
bd2cd6c3
3cce0fc3
3d2c2acc
bce62995
3b35be93
bcc03ff7
bd1903a7
3cb910c3
3d164e8b
3c7cbd55
3d03a648
bd1c8861
3cc98e54
bd963a19
bcce91c9
bbaded0e
3c85d745
bc6c3dab
bd881e47
3d57e564
bd25119d
bca31e7e
39882db6
bd807fed
bd85974e
3d670f39
bc7c71d6
bc07442c
3c905c03
3b122531
3c4d466f
3ca56580
3cf69446
3c68a71e
3a7821e5
bd2fe825
bd593c47
3d0acc0c
bd612620
3d38433d
3d61e604
bd7bfd72
bc904f6e
bc1964c0
bd5ee243
bd54e5d6
bd065e89
bd61e3eb
3d33cd57
bd158538
3ca20147
3ce540cc
3cf2b66b
bd2f4491
bc7965b2
3d551505
3d4343b7
3d5f87f0
3d46f588
bd581beb
bd7191de
3d41dd1a
bb010db2
bd650508
bb80a5ad
bb4c4843
3d4c89b1
3c4c35ce
bcf722e2
bd241701
3d17939a
bce25a68
bd4f2cf9
3d6a209b
bd124e16
3b95db9f
3c78444a
bd7e8145
3c2a0019
3d42b303
3c8e171a
3c3b0a2d
bd302d5a
bd339c0f
3c618266
bb9c4a4e
3d35aea3
3d03ed96
3c1156d5
3d105f29
bd10257d
bd14ed2d
3c115b07
3cedb2f6
3c5c37a4
bc2fa2f0
3d684599
bc93b9f1
3bd3b1c3
3d31cb8a
3d7d47bf
3d0b9fdc
3d02b303
3d2582dc
bd216a48
bc3352a8
bca2a90d
bd0116ec
3cd831f0
3b886ecf
3c1e979b
bc51a21f
3d653fc0
3d17cb2e
39f9b3e1
bd0cf8d7
3ceac860
3c3940ff
bc831ad2
3c94a2ba
bc663a5c
bbab6c2a
ba8f78ae
bd6556d2
3d0a1f08
3d34fa48
3c03f050
bb229d4e
3c23bd74
bd08a47f
3cf9df55
3d1f7729
bca452c6
3b267473
bd2759ab
3bc8f176
3cbf0564
3b8cf6f4
3cea9c56
3c5538ac
bca107b8
3b874503
bd2d8c2a
bd229e90
3d294899
bc415d2d
bb1e4d5e
bd5f4d38
3bfd5a33
39ad32d4
3d82aa19
3c1c461c
3d3dc161
bd5c51db
3d069d73
3d04ea4b
3d25b63d
3c945953
bbf4ace6
bcbaa36a
3d0a9692
bcddce7d
3d442310
3cc2a887
3d73e250
bcec56d6
3d57e88a
3d50fa59
3d516ebd
bcbe37df
3b87f95e
3c80d5e9
bd49a134
3c9abf34
3ca9c348
bd4fa58f
bcee47dc
3d37c02b
bd68f7db
bcdd28d0
bbe25779
3d6cd4aa
bcefbd27
3b9279eb
3cf67b1c
3d4bd44a
3cab239a
3d46d613
3ce81451
3ca3e7d1
3a1d4098
3d3354c1
bbe48479
bd6d98bf
bd4e4b88
3d4fb763
bd1565c3
3d523b36
3cefd007
3c77c676
3d1a426c
bb0a5559
3d628241
3c9044f2
bca617c2
bd41a36e
bd2a11ed
bd32fec5
3cab862b
bd630447
3d30196e
bc8cd20b
bd2dd69d
3cdd3fe2
bd44651f
bcb40703
bd05f17c
ba804d6d
bc28c9b8
bd266235
3d9f401c
3d243676
3d8a64c3
bcf7ff15
3d17c2ca
3d302928
3be77920
3d4e7792
bd39f234
3d63369c
3cc66d37
bcc0ad04
bceae18b
3d22fad7
3d738d61
3c318dac
3d5666aa
3c89374c
bd0ff866
3d2b6178
bcea593a
3bb2de0e
3c73b646
bd2b6ae8
3d078fac
bd1ba7fc
bbe72da1
bc00749a
3b76639f
3be19e15
bd03fa2b
bd1fbc5e
bc6bc83b
bc80cb6c
bb9a2b90
3d03b0c4
bcdd5b25
3ba1f9ba
bad2806b
bc1345c3
3d424f66
bcf8c21e
bc70068e
bd1bde83
bbaea671
bcf56649
bd830b9e
3b89b87b
bd1ed8d3
bbd71b04
bd0e9f6b
bcaffd1e
3d7a2489
3ca90eed
bd4d898b
3c25375d
3d50f40e
bb83c94e
3d6557de
3d397cc4
3d19ccfb
bcd8eeaf
3c810e88
bd16bdb2
3d225c81
bcf89a46
3d60828c
bd6697af
bce703b0
bd39bdc7
3d0e3bcd
3c81a36e
bcb8c975
3c871609
bd2466b2
bd3a908a
bcd466f5
bd5016ce
bd488f86
bb761672
bc55c316
bb169a0b
bd01e365
3d412be5
3d061848
3d5f5382
bc0a265f
bd3929ed
bc87a6bd
3c1cfea9
bd78ae32
bd71055c
bc4d5f9a
3c81c4fc
3c25d28d
bd28d003
3cf58e22
3d61f7d7
3c9a8cdf
3c988d2a
3cad98bf
3d18be73
3d46bf01
bcbb213e
3d61d756
3d3836a8
3d3008a7
3cf61028
3cc1c821
bcea52f0
3cb584b2
ba492e07
3c83b1d1
bd48e369
bd209edc
bc1c7806
bce3e6c5
bc61198b
bd2412cf
3d61ee67
bd503969
3d3bfa4c
bc378cca
bcd5a5b9
3d799f5e
3d05af6c
bc6f954f
3d218aca
bc18bf7f
3bb186f6
3a89c1b5
3d5b6912
3d230015
3d5e85fd
3d42f406
3d2c57e2
3d16a9c5
ba5599a5
bc80a394
3c2abcd8
3ca595bc
bd06748e
3c113979
3b42df0d
bca53b8e
bd2f9ca6
3cd7d7c3
bc8817fc
3cf42bb6
3d512663
3cc98a22
bce3821b
3d1856a3
bcc5aa2e
bd6f9db2
3d2278d1
3d5ff60a
3d695fab
3b55bee4
3d10fc72
bd6425af
3b362846
ba0ea6a1
3afa6663
3c1e2b64
bc2ce24c
bcb68cef
3b81c715
bd1dce7d
bcda3c21
bd43760c
ba6fa43d
bb980977
3cbe6602
3c65eaab
3ceaf46b
bd06d3fa
3ccba301
3d543394
bbfdb3f5
3ca2749f
bb8edd7e
3cec8b44
3d52f1aa
bcc5e4e7
3c52849d
bce789e7
bc1ce8d9
bbfd0a82
3cb50b0f
3d3db4cc
3d85faec
3d90bae9
3c70bae9
3d8133c2
bc7e4367
3d7251c2
bc851eb8
bd27ad8e
3ba86869
bd0cbaf9
3d625d8d
3c7401c5
3c6e5abc
bd50e022
bc800eae
3d475925
bc8bed74
3d5dbca9
3d49491f
3d00a394
bc4382a1
3d59524c
bc4e075f
bd5dd3bb
3cb0728f
3d45eb31
bc35e0f8
bd5b63d4
bc9a3f46
3d23b363
bd4690de
3d1871e7
bc2d14a1
3d1cebff
3cf17375
3d0f01fc
3d7e2a3d
3cb7d417
bcb5781c
bce1d649
bd4c08b7
3d27eb6c
3d18f0c7
bd768273
3d481909
3ba54b7f
bd0ac083
3d042d8c
3d4b4289
3b853990
3c8a3b58
3cca3a4b
bd461e93
3ca5460b
bd0a6656
3a338177
3b7a58f7
bbb97ae0
3d68ff32
3cc7192f
bd20b806
bd348a16
3d109396
bbfd537d
bd6a93f3
bcc753e7
3c8155d6
3d246cfd
3d311d7a
3c5844d0
3d12263e
3c4bc8c1
3d68a505
bcea5508
bd049774
3ccb1ab1
3bcadeb6
3d049cb2
bd337436
bb517756
bbc2ae66
bd60c283
bd62ff09
bd1a4ce8
3d6c52a4
bc2d106f
3caa1512
3bf6c920
bc7a8f7e
bd1a4053
bbe8add4
bc66afcd
bd464452
3c9ee243
3d76ff3b
3b044f85
babe61d0
3d0ee6b8
bc99b90f
3cae3609
3cc5eb31
bd153dea
3cf414a5
3c637586
3ccdfaca
3be87e03
3b5ab192
3c9a88ad
bd4d66f1
bcee2eb2
3d0169c2
bcbeb9e5
3cdf86e4
bb21d24d
3d6250f8
3b0f44ac
bd43d578
3ce7e415
3ce7ec78
bbdc0db2
bd3ad6cb
bc537c13
bd71fddf
3cfd71b0
bcc1f645
bce0589b
b9b0516c
3ccab607
bce8e608
bcb49386
bd20a201
3ce28241
bbaace75
3b9fda25
3ce2f9ca
bd62413e
bd0916ca
3cf0ae53
bab36ca9
bce04c06
bcf1f794
3b24af77
3d547171
3d634eba
bb218520
3cd985ad
bcd1b2e6
3b19b548
3d4e4a7b
3b0cec0c
3d2bce85
bcb3721d
3c1939f8
3c4710cb
3d40d802
3ca9dc72
3c885f4a
bd182342
3d45260f
bbf06a61
3c82235b
3d39d2bf
bc9103c9
bbcaedcf
bca37048
3d18eb89
bd407bbb
bca9ed39
bce2da55
3d4b61fe
3d0738a4
bd4f3238
bd09dcf9
3b1e0539
bc8954a8
bd427a63
3ce98783
3d0e8534
bcdacabc
3d369b9d
bb739df2
3cb0a915
3be686b2
3d1a1230
3ca6dce4
3c0cfe15
3d069f8c
bcd50657
bd6975b0
3d5c7369
3b006ca2
3c6bfa8f
3d129dc7
3cb88ca4
3bf3cb3e
b923bc32
bd1fdbd3
bc035306
3c9cda2b
bbc9edf5
bcb22f27
3d458256
bd86d7a5
bd5f1bef
3c095798
3b5ed5e4
3d238540
3d14d0dd
bc9bc340
3c715619
bd25efe9
3d606424
bc7d2e94
3c138a20
bd3ca42b
bceca255
bd315832
bd70f9d3
3bd8482b
3d1d91ac
bc246174
3d015c21
3d734c5e
3d00767d
3d1886e0
3cc508b3
3b1bee08
bd1f70df
3cd425f2
bd2a8a83
bc97225b
bb0fb00c
3c986b9c
bd178c43
bd502eec
3b34ee8a
3cdfb720
3d2e06d9
bbf00fc8
bc32b346
3c6e0f3d
3d6e7818
bbf53099
bd30c027
3d353826
bd532f88
3d2ef805
bc0a0cc9
bd80346e
bd1e4713
3b704eb2
3ccd184c
3c1cb619
3d356a7b
bd77d849
bd269f06
3a34c03c
bd55b680
ba500cf3
bb17a828
3c1466bf
3c296d4c
3d4d51f8
3ce10492
bc0a5ba4
3d31f14a
bcdf0b28
bd2ce9a3
bc459b80
bcdc0fcb
3d04bf4d
bc666cb1
3cfe1544
bd3a7222
3d371865
3ca311e8
bd2a0664
3d6e1deb
bbb03842
bd471716
bd30aa22
bd308ede
3d138477
3ca4fca4
bd279032
bd388ca4
bd1a32b1
3c63369c
ba97b08b
3be26d48
3d134374
bcd0a88f
3c3d6a59
bc8b45ae
bcdcc63f
3d4d8fd6
3cea0126
3c50c804
3d45baf5
3d601041
bd3f2a17
bd5ef523
bd5f71eb
bcfac81d
3c6ebb34
3ce53437
bd04e400
bc9d1f60
3d2d9be5
bc5a8bd2
bd283c29
bc873de2
3d04d22d
3d3dc7ac
3d3a7547
3cd2f7f5
bb35e52a
bcd89268
bba61e0c
3b8a8e64
bc388440
bcb80453
3d479d4e
3d56e9bc
3d06a3be
bc7f5c6c
3ce9d51b
3be93d46
3d244fa0
bca98245
3d1625a7
bd0e1b4c
3cb8f9b1
bd0eb67c
3c59c6b0
3d13c46e
3d727243
bd5157ac
3c241a26
3d6e4192
3d5aed57
3d49f40a
bd79ad00
bcbbeec4
bd3e670e
3bc7e430
bc81797d
3d172043
bc3e76c9
bd635f81
bc7359ff
bd589481
3ce7b80b
bd567fd4
3d5208e1
3d5b8349
bc49e668
3c719d67
bd232096
3ca8fc0d
3d56fb8f
3d1d0310
3b8fe4e5
bd099bf6
3c1dcff5
3ce9db66
3d2b7fe1
3c83dbc2
bd61ac58
bce9b9d8
bd29a911
3c6568a5
3b9bb781
bc1a3cc2
3c9704ff
bd354b06
bd1539b9
bc1edd3b
bc2d9275
3d0b5675
3bff052e
bd0e4756
bd52deca
bc9d2bf5
bd48b32d
3c76d331
3d116873
bcf2b884
3ca3c212
bd29984a
3d148883
bc16fdde
3d643569
3ce5aff3
3c9ea78b
3d1c91d1
3d56a162
3d11ada7
3d1d6f11
bcc34a02
3d25e354
bc442203
3d606b7b
3d33a472
bbffac1d
bce7210c
3c7da837
3d648b65
3d1ab3ab
bd683904
bd5e5f31
bc6789e7
bd36d549
3cc0c847
bc828805
3d7f3387
bc4ee17a
bd0958da
3d743d8a
3c282a56
3c664f55
3d5c560c
bd1cd91f
3b82af72
3cb4b72c
bc838195
bd28f9f4
3bf51d4e
3d1f2ecf
3d1b2e5a
3d4112ba
3d3ba238
bc9ad42c
3d6f544c
3c8a1598
3d0d0edc
bd24c943
bcca70d2
bc2c3223
3d5e0610
bd3acc4f
3cbc7b46
39d3f6e3
bd3f5b60
bcad16b9
3d2a087d
bacaecf9
3bd1a8d5
3d5e9292
3c973754
bbd297e8
3c28112c
bcd377e2
bc8fba88
3c830a0b
3d08e369
bc8df9be
3c1a91e7
3d0b2c84
bd3da943
3cd2630f
3a049c5c
bac4a912
bc884a51
bcd10d39
bc2647fe
3be7e1fc
3bdb346f
3d40e8c9
3d36cbda
3d6e1ef7
3d11e647
3cadb1ea
3cd553ef
3d026784
3b4c590a
bd5872f3
3d19b4dd
3d44e50c
bcee7c4a
3b6d9ed4
3cbdd335
3ce33acd
bd1bf37c
3bb97933
bcf9df55
3ce9ea14
3c574928
bd09d5a2
bcc40d0b
bd2e1cde
3c375211
bd38ed1c
bd0fffbd
3d4014f9
bd2c258d
bb97f2d0
3d571c11
3d39ae0c
3d6b65aa
bc97939a
bccfdf3b
bc07c343
bd201abd
bc587725
3d5b5d89
3d35ac8a
bd56d091
3d5e731d
3c634331
3d15fcc2
3d564a5a
3d2cabc5
3c75be5e
bd27c7c5
bbd5926e
bd103644
3c391f71
bcf8a4c2
3d2bd3c3
3cac9d17
bc926a66
3bb36bd3
bd61db87
bc91d9b2
bd4c8cd6
bc558c8f
bd631b58
3d484b5e
bc93a4f8
3d2fcbd5
bd7164c7
bd70b8d0
3d4575c0
3c9f57b4
3cefe719
3d4bfa09
bbfefbf4
3c9c3ce2
3c1be249
bce0370d
3d0f0c78
3d1c90c5
3d341bfc
bd71db44
3b81fb17
3bb4f469
3d71044f
3d6c54bd
3d372c52
bd2378ab
3cd7470f
bd244524
bc11530f
3d44d014
bc0f2b16
bc0c23fb
3cbad9f1
bce540cc
bd623f25
bcc7f77b
3d00f12c
bb375496
3c8be511
bd277c46
bc8303c0
3c86833c
bc3dcad1
3ba3e624
3b5fd18c
3cf6965f
3d21b6d4
3c86b160
bd4b1cc9
bcc94d51
bc967ec8
3b18c8b9
bc68576d
3d53be23
3b66d15b
3c2b606b
3d6047d4
3cb065f9
3ce8d10f
bd42235b
bca63b69
3d657753
bd199674
bd52c7b9
3cf68be3
bca73711
3d39b457
bc347c74
bca018a4
bd300cd8
3d15d91b
3d390646
bd6b28d8
bd2a1944
bd2f1dc5
3d1fe64f
3d2ece14
bd0c5543
bc4abc51
3d442529
3cb2c1f4
bd0ef241
bd18c198
3cabdc27
bc41db01
bcd8a97a
3d13293d
3d38433d
3d6311e8
bc4a85cb
3c5b7f17
3d54ec20
3d16a162
bd74f723
bcdeca25
3d1eebb3
bd5dca4b
bd60370d
bce0c9da
bb87980f
bd657c91
bd58fb44
3d1d0d8d
bd6c269a
3d0bd33d
bcc5ac47
3d27f2c3
bd663c75
bd2326e1
b9d5c89f
3ba3959c
3cc20f6f
bc289332
3d1a4485
3d344a1f
bb0211be
3d2456f7
3cf4d163
ba1c8ec1
bd13660e
bca400fc
bbaf8d21
bca12d77
3cfa743a
3bf746f4
bb88c6e3
bca8ef78
3d11def0
bd167ba2
bd01626b
bd37ae58
bc466d37
bcda6c5d
bd388440
3c163638
bbf1a4f3
3c835159
bd44ff43
bcc56d5d
3c7b82c3
3d6ddf01
3cf5ff61
bce8be2f
3d618266
3caf1887
3d404641
3b271a8c
3caceee1
3caeee95
bcdc1e79
3c4dd50b
3d5245b3
3c939eae
3d69e1b1
bb11f637
bd4d38ce
bd69a0ae
bcb5f80a
3d328f9f
3d434d27
bd220ab7
3d66a338
bd298351
3d6772d6
bcf81627
3caf4f0e
3bff9a7f
bd3b480a
bd380fdc
bc68a71e
3cbc9470
bd3d273d
3cce91c9
bbd121c6
bd21932d
3d646ae4
3d553261
bcd08d4c
3c6d4e4d
bccc2b52
3b746aa1
3d0fe154
bd206c87
3d1d15f0
3c1bad05
bd3fb69a
bcfca644
bd32e8c0
bc3b1290
3cf396d1
3d40010c
3d105187
bcfb8d3f
3d256de3
bc4297c0
3d39df55
3beb8448
3d54a4d3
bc8fa377
bd5a88ad
3c9e94ab
bc7a3fcd
3d67e521
3d5f7836
3d5fdef8
3cb01861
3d08db05
3cfb1184
bd360f1b
ba240c0e
bd572474
3bd2ea1d
bb8434ae
bb81c2e3
bd42e771
bcb40d4e
3d712e41
3cdad96a
bd142b30
3ba1f65f
3d0e0fc3
3d373b00
bd178d50
3d22da55
bce9db66
3c901084
3d246cfd
3cb1a8ef
3c81882b
bcc8e25d
3d21e929
bd279357
bd3311a5
bd54a904
bcdf6124
bd558a76
bd321c47
3cfea5f8
bd5e8816
3cd3c793
3ca5c5f8
3c77b17d
3b00460b
3d568944
bd548238
bcc6b053
bcc55001
3cc99286
bcbf35a0
bba151f5
bc877250
bd1c8eac
bbe50904
bc0264ca
bd392e1f
3c228bb1
3bdaf07c
bd2c13ba
3c617a03
bd0255b0
bd6a5e78
bd33f0fe
bb2780e3
3ce6a769
bacc7c45
bcd6c93a
bc6a033e
3d5d26b7
bcf04bc2
bd07229f
3c97ebaf
bd3dd00f
bc861e93
bab0c382
bb16b690
3d5dc1e8
bd24f00f
3d12c062
3d01797d
3cb4a01b
3b08d881
bd424e59
3ca41c3f
bce74afd
3d0ed5f1
bcbf4667
3c80a9df
bc792f2b
bb50d13e
3c8bcdff
bcb5d463
3c716f44
3b7d12e6
bd57df1a
3d54c76d
bc69a6f8
bb339848
3b5bd076
bce0bf5d
3ca3fee3
bd3afd97
3bfe60c4
3d0b08dd
3d4afd54
bd087ca6
bd0c3f3e
bd2c18f8
3d404103
bd679789
3cf1f362
3ceffe2a
bd3c2225
bb85f64f
bcb6e936
3cda5b96
bc1d3748
bbdea897
3c488a48
3c31fab9
b9d89ebd
bce733ec
bd6bfb9c
bd376b3c
bd41b110
bd5de58e
bc3dec5f
3bffb3aa
3d6cb967
3c7d7a14
3d249c2c
3c8cb4af
3a0ae6f9
3ced8f50
3c8385c6
3c935116
bd1bea0c
bd5abf34
3d3296f6
3cc4284e
bd05ae60
3abf7850
3d5844d0
bb66dec7
bcd525cc
bc371759
3cef9768
bc8aaeb0
3d4a57a8
3ce770bd
3d29d94d
bd45f5ae
bcc49fd8
3b0cc3c8
bb65b5d2
3bc046ad
3cc3d684
bc1d1d47
3d0fce74
3bdc69f9
3c74a98b
3d305faf
bc5c50ce
3cdac68b
3d17b41c
3aba3012
3cf51266
bd1539b9
bd0a7504
3d4e8640
bcc347e9
3d6ff089
3d065a57
3c3f50e3
bc9f340d
bd4d4fdf
bd13d428
3d58cb08
3d46de76
3ca15981
bcd6a162
3d43c3a4
bd5c4652
3a7c42dc
3d017fc7
bd396399
3d568c69
3c39baa1
bc78012e
3d0cd20b
3d137e2c
3d70f27c
3c5a0dfe
3cb59bc3
bb8a8600
bca89fc7
bcaf8594
3d636c16
bd554da5
baef672c
bd2fee70
bd38f14e
3b26d0ba
3cf4623d
bb349aa7
3ca9b8cc
bcfb4a23
3ca30985
bd4853c1
bca7e953
3cd5d80e
3c61c151
3d543e10
bcca98ab
bb3ff7d2
bd62d0e5
bc4da6e7
3d2e8d11
bcc32ebe
bd1fa659
3a86cb61
bd5bcec8
3b8c2a45
3d41d9f5
bd46dc5d
3c8f40e6
3c681451
3c89246c
3a11b3c7
bc0c19ea
3d40b674
3d38aa00
bc98f1d4
bbf379e0
bd47e8cd
bd1dc832
3b017c6c
bd0dcb9b
bce4e26d
3c141206
bcc04c8c
3ad3a457
bd2dea89
bd13d20f
3aaf3436
bd4f56eb
bd34bf90
bc29435b
3bf2edc9
3d45564b
3c8b545c
bd634118
bd1b61bb
3d2baade
bc91c8eb
3d332f01
bd4d0dd0
3cbffac2
bc0167df
bd643dcd
3d06d2ed
bc919ac8
bcb0a0b2
bd4c111b
bb7dff75
3d31337f
3cc6c765
3d6f1562
3c8ac190
3cd8e432
3d358080
3d32dc2b
bbdb42b1
3c7db09a
3d1ecf64
bcff6d33
bd1cde5d
3abc606e
3d4ea077
bb6685db
3d68a2ec
bd02949a
3d2dddf4
bd0b3f64
bcdac259
3cd058de
bc81040c
bd0c37e7
bd1c8c93
bc8e7147
3cb8e4b8
3d0767d3
bc7a7eb7
3d48a8b1
3d4385c6
3caecd08
3d85a251
bd677a2d
3cf281fe
3a93cf55
3d6049ed
3d04cdfb
3ba43fe6
bb59cf14
bd2807bc
bd71715c
bca31833
3d3c4d23
bd55df65
3d5742dd
bcf811f5
3c36a1e8
3cd3a81e
bd2f8594
3ce13f4b
3d0ddd6e
3d3c59b8
bd2e9143
3d879789
bbd45ce4
bc9fff7a
3cc84b5e
bc979182
3bb4bc35
3ce96e59
bcc2352f
bd2619db
3c294ff0
3d5805e6
bd46ac21
3d435697
bcb5525d
bc1e0bef
3b89c0df
bc8f1d3f
bd418506
bcdab9f5
3c582342
bcd9fb1e
3c5798d9
bc0827ed
bd342cc3
3d13111f
3c3df091
3d55219b
bd3c7714
bcb9713b
3c65b424
3d2fe932
399c9d85
bd21c044
bba1c334
3d79c1f8
3d5084e8
3c2732df
3d0c814d
3d614057
3bc1fbb8
bd596fa8
3c704ddb
bc811f4f
3d4713f0
bbc2755b
bcbdc487
bcd3d428
bcde17e3
bc83dff4
3c35f1bf
3d7bb0e6
3c150fc7
bc9f2991
3c931876
3d3d640f
bd25ffa4
bd44c059
3cad98bf
bd1ac8a3
3d1e7d9a
bc32745c
3d8921cd
3b82fa1b
bc4a1cef
3cdcf030
3d41a049
3d2b367a
bd0cdea0
3c8bd87b
bcfb41c0
bd21bb06
3d0bf099
bd07a398
3d680ae1
bcd6b442
bc3c72e2
3d6b53d6
3d46cb96
3cf27fe5
3c8d38ce
bd45f4a1
3d2e1694
bc9d6adf
3ca7631b
bcc0b136
3cde6363
3d22ed35
bc8d477c
bc7c115e
3d21ef74
3ad8f34c
bc547bee
ba4d235f
bc0dc840
bc8b4396
bd6b51bd
3cdaceee
3b204ec0
3d58ab93
bd354089
b9915121
bd55097d
bd284cf0
bcce3fff
bd4079a3
3d06df83
bb8c3f3e
bd2bbdbe
3d2cf744
bd483ba3
3bc9c32d
3d964628
3c407ee1
3c53ae68
3ca17f41
bd282a56
bd25c91d
3d456a38
bd5083dc
3c0aa78e
bcdfa659
3d2c18f8
3c670c13
bc3224ab
3c84944f
bd033d6c
3cd436b9
bd2fee70
3ce01bca
3d5c6d1e
3bb14deb
bcb54196
3cafb3b7
bc8ae31d
bca3358f
bd09949f
bb9ff4fd
3d3635e7
3c8e7792
3cc3914f
3d4d3e0c
bd28fb01
bcd8f4f9
bbf11226
3c148f03
bca22920
bd0a6ca0
3d30563f
3d347304
bd24bdba
3d600e28
3c23414e
3d631727
bba9d47a
bcee3f79
bd500c52
bc8986fd
bd48d9f9
bc2775fb
bcfb54a0
3ced6dc2
bd41919b
bd235c5b
bd1ce8d9
b9314dc0
3d2b8d82
bd3b2bbb
3d1cbddc
3c82a77a
bc87f887
ba747507
bc35c7ce
bcb25f63
bd5ca6ca
bd1c8c93
3d32f76e
bccb0186
bd63a4b5
3d803c4b
3c95df65
3d30531a
bc9b738e
bc069398
bd54434e
bd2a7ce1
3d06f8ad
bd2dfb50
bc0c197e
3c154eb1
3d0b7a1c
3c91d580
bcd0b73d
bcfab10c
3b93a3b6
3c1a4f37
bd0bcbe6
3cb0728f
badc0e89
3d3c42a6
3cf94c88
3d5f7e80
bc13a4f8
bc9307af
3d053c15
3d2c2268
bce310dc
3d1219a8
3d46cdaf
3cbe9a70
3c6e17a0
bc897e99
3d627aea
bc3b6ed6
bd215b9a
bd4ea8da
3d33fc87
3d277c46
3cbed0f6
3ccc9a78
bd56fa83
3d52ed78
bb1fdafc
bd23ac0c
bc92bc30
3c9704ff
3c1b7ab0
3be6df9e
3d177b7c
3c41a049
bd634331
3d67b917
bd534bd7
3d2dc7ef
bc397354
3cd96e9c
3cad70e7
bc9e5c0c
3d317df2
3c37cfe6
3d314db6
bd699c7c
3d458ff7
3c8ab92c
bd645c36
bc71348b
3d3b688c
bd5db22d
3d4489d2
3ccd1c7e
3cf0867b
ba83ec89
3c3e6e65
bd44c7b0
bd6ec9e2
bd0ca81a
3c49bc77
3d70196e
bbaa425e
bd40d2c4
3cdfca00
3d3e1651
bd36b2af
bd1eb852
bd5f138c
bcbbd380
bd5d67ba
3b3f719a
bcb3df2b
bd308249
3c30318c
3d0917d7
bc2a64c3
3d0b4aed
3d2b2181
bbc9b91c
3d174a34
bccface6
bbc428b9
3d4917d7
bc8fecdd
bd3d1138
bd017226
bd65a9a8
bd5b75a7
bb9b14c4
3d035bd5
bd0e6d16
3d29d302
bba3e8a8
3d3c86cf
3cb09e99
bd141637
3d53af75
3c86e19c
bd00ee07
3d293f29
3cc764ae
bd2f9ebf
3c4b1034
bc703d14
3cb56da0
bd33e89b
3c9a005c
bbd06fef
3d089d28
bc959c49
bbb6bcc0
3ca2120e
bd695747
3c739086
3d0f7985
bc23b074
bcfb17ce
bd3033a4
3c46fbd2
bd242071
3c955d5f
bd62de87
3b0aa93c
bc85553f
3c8f190d
3c952f3c
3d557364
bcc3bd5a
3c991794
3c1dfbff
3cddd2af
3d675686
3d0f1a1a
bc38066c
3bb2a5da
3ca46e09
bcd4434e
bcb0ea18
3d08b978
bd01b973
bcd017db
bcb8eb03
bca5a038
3ca49e45
3d370585
3a3c7f4d
3d1e2cdc
3d1d7ecc
bd2bbdbe
bd5a511a
bc5666aa
3c2f9229
bc86705d
3d567989
bcddd6e0
bba5b45a
3cb4959e
bd3f9618
3d5c2a02
3ca8f9f4
3d4286f9
bc14fc7c
3d0b7803
bca43fe6
bd0a8199
3d38e2a0
3cde9186
bcc31162
3c8192a7
3a5da288
bd42278d
bd60dcba
bd0a58b4
bd442c80
bd058794
3c90c2c6
bd03e426
bbce3a8b
bcf30404
3d5626b3
3d482e02
bcd6b873
bd33bd9d
bc55f139
bc850df1
bcc87336
3c416590
3d2220bc
3d0e8534
3d35afb0
3d20f5e4
bd13ec46
bc243bb4
bd219c9d
3a7f3077
3b05d9c9
3d59dcb5
bd6db50f
bcda72a8
3c6379b7
bd306812
bceafee7
3bfd6afa
bc787f02
bbccac16
39002021
bcef62fa
3b89ee2b
3c1a5af5
bd506680
bc59988d
bd1080b6
3d085d31
bd3ced91
bd3178b3
3d61db87
bcda2d73
bd7b352b
bd4bdcad
bc9fff7a
3c97d49d
bd2ffe2a
3c57fd82
3d33e469
bcd9e1f4
3cf09d8c
3c780dc3
bcdd7881
bcd3c9ac
3d049fd8
3d5a469d
bd396399
3d6ea423
3d2d5f14
3d667946
bc36ed67
bd238b8b
bd4bb1af
bd18116f
bccf6dfc
bcbad7d8
bd77d0f2
3ca52ef9
3cee8f2a
bd639b45
3d196fa8
bcb14877
3d4fb97c
bd2a5e78
bc643244
bd4a4e38
3c6f30a5
bbd3473a
3d102257
bd56f438
bd31ac15
bc950119
3d604e1e
3cc940bc
bd54d402
bba54e03
bcaab25b
bcd4a3c6
3d680065
bd5376d5
3d5add9c
bd287d2c
bc5a836f
3d4dfdf0
3c21e1d2
3c3b3850
bba369fd
3d551f82
3b84c272
3cbf6a0e
3d616c61
3ca66fd6
bc613b19
bd480e8d
bcca6224
3c529995
bc0cfa4f
3c123cae
3d78c869
bc605469
bc3f4cb2
3c40ce92
bd4a9585
3c2d81ae
bd09fc6e
3d566f0d
bd3ba238
bccba94c
bc1b5dbf
3c93db7f
3cc9ba5e
3cfda405
3d5526d9
bc8bd87b
bceea423
bd0a3401
3d2ce24c
bc1a8c73
3d2f9db2
3d187400
bd4fe048
bcfd5022
3d82a2c2
ba3574c1
3d722c02
bd177b7c
3bb7655c
bcf93576
bcb1e7da
3d3ea705
3cd39970
bd6e696a
3d775a75
bd06fac6
bc4ce5f7
bc22c237
bd374aba
3ca009f6
3d09dcf9
bcf1f57b
bd1df224
3d364f12
3d199136
bc301861
3c54562e
3cf6e829
3d779208
3d078423
bd558a76
bd273d5c
bcd0507a
38721415
3c8dda49
3d0be1eb
3d4813cb
3d7f993d
bc8142f6
bd00181e
bcf8444a
bce9b175
3cfbbd7b
bad4c18e
3cd933e3
bc3545c8
bd0ab2e1
3d6c397a
baceba0d
bca05bc0
3d5feeb3
3d2601bd
bcc5f395
bc86fcdf
3cb04253
bd5db121
bcbfe3b0
bca25311
3d3dfb0d
bd526528
3d79335d
3d85f288
3c054e89
3d2400fc
3bafc555
bce83e42
bd0a0b1c
3c49d9d3
3aa92cb5
bd103a75
3c60d66f
bd38f8a5
bb317a61
bd67ec78
3ca14f05
3d5c011d
bc85d0fa
bcf720c9
3d576039
3d9204b0
bbb8be22
bd7d2c7c
3cb762d8
3c63d5fe
3cf08cc5
bd8e48e9
bd026fe7
3d774cd3
bd02a348
bc035b6a
3cb9bed3
bca28dca
3d45803d
bd102cd4
bd12dcb1
bcb213e4
bd5cbff4
3c2a8651
bcb60ae9
3d2c42ea
3d279ee0
3d80029f
3caebc41
bd2d5cfb
bc5be3c1
3cf2e8c0
bcac4502
bd1888f8
bcf64064
3d583622
3d1b9842
3c835bd5
3bd6cdd8
bd227286
3d5b60af
bcd3048a
bd3c42a6
bd66b93d
3d41c4fc
3d6234a8
3cad3847
bc87f456
3cf969e4
bcd34bd7
3ba954f8
baa0861d
3ce52589
bcc1cc53
3c63d1cc
3d5b1316
bc6f5665
3d601041
3c982a99
bd005a2d
3d18a655
3c3bf0dc
3ce43aa8
bcb04ccf
3d1db65f
3cff993d
3cefcdee
bc204154
bc0ebe09
3d291ea8
bc1787dc
3d2bb880
3b901231
3c0a83e8
3d5e2153
bcdd7a9a
3d097311
3ce5321e
3bd71957
3d530ad4
3d5d8e86
3d20c49c
3d3ae9ab
3c5c3372
3c2cd9e8
3ccf850e
3cffa5d3
bce91644
bc9806f2
3d108701
bc1dfc6a
3d7c6b8b
bc9ba5e3
bcba0e84
bcb8a19d
bcd3ac4f
3c9e236c
3d0f0846
bd499f1b
bd5703f3
bb9babc3
bd18d478
bc1f6d18
bb084d41
3cd3c57a
bd2a5c5f
bc2294eb
3cedca08
3c524e16
3cbeb5b3
3d52d98c
3d559d56
bcf607c4
bd388b97
3c173f4c
bb522425
bd5600f3
bd1759ef
3aa80212
ba936aab
bb293d7c
3d7d3d43
bd553261
3d30bf1a
3d4a9585
3d7ab218
bb88ac0c
bd7a81dc
bcdbfad3
bd4d4888
bd18be73
3d60ce0c
3d113405
bc47eae6
3d561911
bb1d388b
3cdc2f40
bd79799e
3d696e59
bc841249
bd2c1b11
bd21943a
bd1e603d
bd30489d
bcabc0e4
bd3b9496
bc9949e9
bd4f062d
bc1cccbf
bcf383f1
bd416484
bd1d206d
bcd01c0d
3d32e9cd
bc348909
3cd9274e
bd1001d6
3d55f02c
bd4ccff2
bd52641b
bcd12ec7
bcd9274e
3cb53719
3d5b951c
3b8463a7
3d762a5e
bd11cc10
bcae4b02
bd59ed7c
bd12f6e8
bd2517e7
bce38a7e
bc641d4b
3d64ef03
3d0e67d7
bd52ec6c
3d2dd15f
3d0b70ac
3c24f00f
3d51c4b9
3d100a39
bd5e742a
bd527a20
3b1854f6
3d74b513
3d2dc2b1
3c860781
3cec9e23
3d719d67
bd2b063e
bd5eaee2
bc18d0b1
bd3a109d
bcd1def0
bd370585
bd3a109d
3cdc52e7
3a6d6c80
bd3358f3
bd275793
3d1870da
3d605682
3d1ae819
3c508d4c
bd19e625
3cc9de05
3d54cb9f
bb93cf55
bd388ca4
3af4d453
bc6974a3
3d3dd335
bd280171
3d5b2f66
bd34f50a
bcde2260
3cc05708
bcc80410
bcb71972
bb88bda9
3ab1282c
3d18dde8
bc154d04
3d689763
3c13febb
bd626e54
bc1801ea
bcaf0175
3cbdd767
3d6b95e6
bc1f998e
bd069c67
3d2efa1e
bcbc9abb
bd09b739
bd79f98b
bd3c2118
bd2606fb
3ccd39da
bcda682b
b8976a14
3d06f36f
3a8ca08d
3c0c938c
3baa1a1a
3c1814ca
3d2babeb
bbd9af33
bb97a3f6
bd145953
3cd07208
bd30b7c3
bd3980f5
bd3f91e6
bc8e5e68
3d0a558f
bca1f080
bd31d3ed
3d2e3609
bd0e3de6
3c9e0829
3d0213a1
bc530271
3d0d3e0c
bc340b35
bd3cb817
3d6f9db2
3d5475a3
3cd870da
3c321c47
bd380dc3
3c3e1651
3d2b441c
3c63eaf7
3d505c03
bcb5c9e6
bd2f2f98
3d3cf5f5
bcb98c7e
bd35610b
bd397354
3bcb5a06
bcea2b17
3ca06855
3d66a769
3ba57647
bd374cd3
3d4c9753
3c41e796
bd3fe5c9
bd144999
3d6a4335
3c042a9d
bbc99bc0
3bde9623
3d46cca3
3d6d56b0
3d126634
bcecf206
3d0956c1
3cd1bd62
bd46bacf
bc15a36b
bc29f7b6
bccaa759
3d2f33ca
3d49fe87
bc3be015
bd48e044
bd56fc9c
3d37c676
3a43f1dd
bd136827
3cbd6e8b
bc8bdec6
bd54b7b3
3cee0f3d
3c740e5a
bd202d9d
3c73dc05
bca24463
bc9ce076
bd19aa61
3cca1cef
3d6c9f30
bc0d3720
bcc82be9
bd5cb9aa
bcc2edbb
3d48637c
3d248e8a
3d45c9a3
3a9f1504
bd5323ff
3bf7bee9
3cf32df5
bcdce5b4
3bf2e565
3c01b7fc
3d4bcf0b
bc67296f
bcbe121f
3d1d095b
3cf8d717
bb431d21
3d0153bd
bbcb0a55
bcff583a
3d2f9ca6
bd0ed4e5
3d480b67
3ca979e1
3d4f9f45
bc1337eb
bae47205
bc2ad602
3c715e7d
bb931ca8
bca92817
3d4de3b9
3d2ededb
3c4b74de
3b6a34bd
bcaa27f2
bcb5f5f1
bc7b2aae
bc6b56fc
3c953155
3c541312
3d09be90
bd349cf5
3b965973
bc47192f
3d4620ab
3b3b9212
3d355ef2
bd591bc5
3d13037d
3cfb7a5f
bc84449e
bc86c00e
bd316d2b
3c44827b
bcf84018
3d049ecb
3d281fda
bce5f30e
3c93b5bf
3ca0c283
3c12dfd7
3c23f898
3d58e432
3d66e222
3d4acd18
3d15bccb
bd392296
bcf034b1
bc0bacdc
3c5fe75c
bd04d65e
baf506a8
bd42e126
bc3e2b49
3d324c83
3c927b2d
bcde614a
3d524d0a
bd2afee7
bd0c3c19
bd3d07c8
bb620f54
3b977278
3d72495e
bc238f51
bd4a83b2
3c1dca15
bd1b8bac
bc829f17
3d6c8f75
3d13a3ec
3d304ff4
3b188aa6
3d11d68c
bd20535d
bcb02d5a
bd5a671f
3d1948dc
3d77d73d
3d6f8488
bc5698fe
3d737fbf
bd4fdc16
bc92ccf7
3ccd4cba
bcdcb9aa
3c628672
3cad3847
bbec976d
3c329a1c
3c38cb8e
bc1b35e6
bcc6b26c
3ce0a84c
3c0a2dec
bd0c100e
3b239c52
bd062a1b
bd3c7f78
3915d20f
bd5018e7
3d3a9e2c
3d2bebe1
3c909071
bca44a62
bd0c814d
bd16f007
bccd423e
bd4d38ce
3d81e0c6
3cc71b48
3acad221
bd5248d8
3d404103
3b25416e
bd4a6a87
3b99128b
bd2c5b08
bb54c9f1
3d3b59de
3cb89720
3b667f25
3d5f88fd
bcdbc44c
bbd75fce
bca79789
bbce6553
3d3a3012
3c548883
bd79abf3
3c252ef9
3cf852f8
3d320536
bc8079a3
bc24fca4
bd2378ab
bd74aec9
3cb6933a
bd1a500d
3d4e9814
3d7687b1
bc9289db
bd06eb0b
bcf50e34
3d377d0f
bcbc3c5c
bce1cfff
3d3dd335
bc1cd5fa
bb88a7da
3c24a8c1
bc89fa55
bcbcd9a5
bc89f1f1
bbc3eb7d
3d8412cf
3d6af790
bd5a7c18
3c36805a
bd0509c0
bd746994
bce54717
bd651f3f
3d2c4934
bd5320da
3c786e3b
3cd9e40d
3d10dbf0
3d086595
bd1c68ec
3c43e319
bb6d428e
bd04d76b
bd607c42
3bdccc1e
3cf49492
bd7f1737
3b30c88a
bd62d730
3d1c9d5a
3bbda512
bc5b61bb
bc5bdf8f
bd5231c6
bc0dcd48
3d1bbcf5
3cd55c53
3cb77e1c
bbe17e35
3cff92f3
3cf0a5f0
bcdd7cb3
bd0a82a5
3d268f4b
bd3b8a1a
bd4d099e
bd55842b
3cff9b56
3b361424
3ccc1872
3cc12275
3ca55b03
bbc02d82
bc2808c8
3d04651f
bce368f1
3c8fd7e4
bd6dab9f
bcfdd00f
3d7bb731
bd52135e
3bd680ab
3d76b8fa
3d3f8db5
3cce7686
3d265ade
3d804ea5
3d7db6e5
bca413db
bcc69510
bc0226b6
3d2f7a0b
3ab74de0
bc442a67
bd357e67
bceb7026
3d4306e6
bcbca969
3d58201d
bc718ca0
3c02e375
bb786d65
bbb232ee
bcbefd00
bd3fb7a6
3bd8fe33
3c6c2481
3d051b93
bc0349cc
bcdc22ab
3b15802f
3d33c70d
3c5b7f17
3cd0a88f
bc3502ac
bd16f21f
bc9b62c7
bd021af8
bb9d4e5a
3d41ede1
bcbc6eb1
bb0d434a
bd7fe2a4
bd0901d2
3d45b079
3c45c572
3d544674
3cf84663
bca1a501
bc244418
3cb369ba
bcfdd00f
3abc5d13
3ca05ff2
bcf68598
bbb7c4fe
bd14855e
3cfb8d3f
3ca452c6
3c43dee8
3cff3062
3c2f6406
3d4f398f
bd4e13f5
3d00192a
bb446e59
3c367c28
bcf3eab3
bd069b5a
bca3dd55
bd47fed2
bc63150e
3d19fb1e
3d253c9b
bd6749f1
bd1f3733
bc14c737
3c9afc05
3c6703b0
bd181f10
bd233051
bd04d76b
3d5f7942
bc880b67
3c11d077
3cb3a8a4
3d278184
bd058cd2
3d66ea85
bc9c90c5
3d51ab8f
bd2556d2
3c8d62bf
bd47485e
baf3379b
3d635504
ba0e19b4
bd5740c4
bcc36113
bce0956c
bc00d28e
bd6cecc8
bd13aa37
3c873bc9
bcb9713b
3d125edd
bcd1c3ad
bd2fe60c
3d0f0d84
bd374688
bc7e60c4
bd2eafab
3c7f92f3
bced5065
3bc7523a
bd4622c4
3d23b257
3ce36d22
bcb9e8c4
bc2ae6c9
bc154f1d
bccbbe44
bd3530cf
bd50257d
3d31d4fa
bd061e93
3d3eff19
bd6b8844
bbc5aa9a
bd210f0f
3d0ba40e
bc1ea3c5
bcf7f499
bd2122fb
3cb55ac0
bcbead4f
3c119e23
bbe1777f
3d70446b
bc92c062
bd5c725c
bc6a960b
3ca469d7
bc550ebb
3d666ba5
3d3e62dc
3d34aa97
3cd47bee
3d4817fc
bd6ec7c9
bc0a951a
bd64191a
3d2df3f9
3ad0fe8b
bd4d9d77
3ca0f4d8
bcb07f24
3d727137
3d05e6ff
3c84d984
3bef9980
3d33e143
3d1ddb12
3cf631b6
3be8ce8b
3c291538
bd5f5382
3d462b28
bc142983
3cec0b56
bbff97fb
bd3b480a
bd33860a
3caac96d
3cb6ef80
bc5f223a
3c6a3162
bd43cc08
bd38811b
bce770bd
3d3810e9
bd502abb
3c37baed
bd2008ea
3cd02abb
3c1c8a0f
3c678184
bc445cbc
bcdcf030
bd082f0e
3d498916
3d68294a
3cdd206d
3cf4c4ce
3d000970
3d40b34e
bca14489
3c88509c
bd4d727a
3cf1a7e3
bd48feac
3c2c215c
3ce55e29
bd20913a
bd1b36bd
3d2a51e3
3cc75e63
3d2d9f0a
bbbe3e95
3d660807
3ad972cd
3cfcc187
bcd3ef6b
bafd1641
bcccad58
3d62e1ac
bca47cb7
bcf6a93f
3ce01798
bd254a3c
3d758299
3ced2cbf
3c72ecf2
3cf24745
bab4a15d
bcd5629e
3d032b99
bcc1ede1
bd151937
3ce772d6
3d8b68cf
3d6d7625
3cf71002
bc024ac8
bbfb8bfd
3d508a26
3c49de05
bd41fa76
bd156b01
3bae9681
3cc5bf27
3d278184
3d5b951c
bc7f0457
bd6a5d6c
3b4e62cf
bd02de01
3c0297f5
3cc9c90c
bd5f85d7
bd4b1fef
3c0078cc
3caf09d9
bd40c522
bc4f0b6b
3b517756
bc18bcfb
3cc6d3fa
bd26234b
bb7c3570
3cd6c93a
bb9925d6
bd40346e
bcdc93ea
bb28c4b0
3d27b4e5
bd0e9707
bafb8399
3cc8b008
bd3db09a
3d199cbf
3d58d691
bce43aa8
bcdfc19c
bd1976ff
bc96030c
3d28815e
3c7f5c6c
bd4e91c9
b7970526
3d64191a
3d952978
bc0ac124
3ca730c6
bbd02b26
bceabffd
bce379b7
3cbd5561
bc1e04ce
3c1407f5
3d54c22f
baabd937
3d72fba0
bd1f7942
bd57cc3a
3c762307
3c88e582
bd01b435
bd0635a4
3d370de9
3bb5d96b
bce601bd
3d2e9ccb
bcb43526
bd58915c
bcf9d0a6
3c3e4cd7
bc902364
bd455326
bb952312
babf9d39
3d21dc94
bd1f88fd
3d44f1a2
bd41bc99
bc0cca7e
3d62120e
bd6771c9
3d594291
bd510d39
3d345283
bd413986
bcf7b396
bcd249e4
3ce3ef28
3d514f48
bce2de87
bd0ba0e8
3d0f5904
bb6127ce
3d01bc99
3d55219b
bc935760
bc1d75c7
3b15b78d
bbf8a746
bae6b683
3c0cdbb1
bd4c3a00
3d476f2a
bcc4284e
bd20125a
3d685db7
3d16b980
bc0c854a
3d0a4e38
3d465d7d
3d5f8f47
bc975afb
bd58244f
bca83d36
bc1a579a
3c20c8cd
3cf95d4f
bd295b79
bcec54bd
bd700475
3bb28b02
3d1a0382
bd7965b2
bc841ede
bd5d4f9c
3d71b691
3d0bb3c8
3d0382a1
3be47b3f
bcccd749
bd6148bb
bc3356da
bd516335
3ca69df9
3d33bfb6
bd243782
3c91b1d9
3d7afea4
3d1fcf3e
3ce2d1f2
3d1dbfcf
bd66234b
bd349be9
3b380311
3bfa8f7e
3d6392e2
3c596207
bcaa77a3
3c8635a4
3cd188f4
3c9919ac
3ad5cdfd
ba24ea30
bd103fb3
3d6e71ce
3c2f2d80
3ce47fdc
bc4a9692
bd572bcb
baedb2f6
bd3f8ca8
bbabde40
3c0261da
3cf3b646
3d221c8a
bd04d22d
3a406286
bca732df
3d40a4a0
bc849881
bd532618
3a19fa68
3cf9c62a
3d579075
3c055391
3d4509c0
3c005525
bd12e83a
3d568c69
3bc480ce
3cf71002
3d15aaf8
3d19ac79
3d7dd441
bb07229f
3d08ce70
3d5615ec
3ce909af
bb3d67d5
3cc2699c
3d27264a
3b1807c9
bd0bf3bf
bd5f127f
bc1c6160
b8a04ef3
bb83324f
bcb37868
3ca3033a
3bd1b2e6
3bf592bf
3c065585
bd58d152
bc07c775
3d64e26d
bd239a39
3c4d91ef
3be8db20
bd11a006
bc2c0831
3d8299d9
3d6c8a37
3c52e947
bd481e47
3c85a709
3c6cd078
baa24b19
3c0133dd
3b97a751
3d29ea14
3cd3e4ef
3d293e1d
bb0f78ae
3c8b0f28
3ca4e37a
3d353c58
3d23608d
3ce06fac
3d5425f2
bd41040c
bcd5475a
3c760179
bd0da7f4
bcca105a
3cd2da98
3d3e260b
bcdba6f0
3c98372e
3cbccaf7
3d7b70ef
baca7788
3d81f106
3d374470
b9e2fc39
bc076047
bcc5308c
3d09a134
3d1c022a
bc67bc3c
bc5a33be
bd53ec46
3cef6b5d
3d1b2a28
bd61059f
bca3fab1
3cbd09e1
3d7b9064
3b76e173
bc80e8c9
3d361dc9
3c87ee0b
bc9d041d
bd027a63
bc5c93ea
3d022036
3d1986ba
bc3dc26e
bc51b2e6
bcfd47bf
3d0bbf51
3ced80a1
bd253869
bbbd3580
bd5cf9a0
3a033eb9
bcac40d1
bd68240b
bbf18f24
3c8c1334
3c6008ea
3b8cf546
bc03ec89
3c15e255
bd309204
bd4b2208
3c1dff5a
3d1c90c5
3d323572
3c0400ab
3c25a038
3ce12e84
3c8c6b48
3d5a1449
bd6007dd
bd30ec31
3ca643cc
3ce12a52
bd6e3e6c
bc993d53
bd26f71a
3cccdd94
3d6aa4ba
3d5206c8
bd576577
bcb5b91f
bd38e5c5
bd530ad4
3ce9424e
3ce6a338
bced9dfe
3bb304a5
3d0b8cfc
3c73f530
3d62ee42
3c869403
3d039475
bd37b8d4
3d094b38
3d0c825a
bb6028ca
3ca2b170
3cccff22
3c326bf8
3cc8b86b
bd6362a6
bd4da4cf
3c30c027
bd4bcbe6
bd5ce4a8
3d34e54f
bbc62f24
3d4d1c7e
bba82db1
bcb2d6ed
3c393038
bba87e39
3c9f969e
bd2f8f04
3d835a42
bc318549
3cd65a14
bd30db6a
bd3de0d6
bba965bf
3d49ea9a
bd1d82fd
3d7c664d
bd0219eb
bc630015
bd110a13
bb6cbc56
bd341e15
bc72d3c8
bcd50ca2
bd2eb0b8
bd1db22d
3d11be6e
bc982667
bd1b9303
bd52ed78
bcb07af2
bc342891
3d2ba6ad
3d8fb6dd
3d8775fb
bc9c219f
bc8d2a20
3d59b5e9
bc9f9f02
3d200d1b
bce3e6c5
3d56f976
3d263305
bc775537
bd2163fe
3cd41fa7
3d516441
bc1fa39f
3cf2e6a7
bb999c1e
bd165f52
bcb2ca58
3d298245
bd532c62
bcd3176a
bcf9f666
3c6453d2
bc999568
baaa9dce
bbc90fa9
3d352a84
bd44f6e0
3acf1eb7
bd2807bc
3d676c8b
3d3f2d3c
3d63beec
3ce3608d
3cc96031
3d49eba7
bc5ca07f
bd6f3f53
3b9e8c48
3c16bd46
bc8917d7
3d026784
bd34e337
bd303c08
3d3e2824
3b183a1e
3d261ae7
3c37995f
3c45cdd5
3d543e10
bce3369c
bccb2b77
bd032980
bd090603
bceec5b0
3d0795f6
3d5f8c22
bd2c3116
3b2ce902
bd20ad8a
bd17689d
3bdbc3e1
3d2789e7
39ed3c2e
bd2c918e
bd1e1199
3d05e4e7
bca031cf
3cc84d77
bc0211be
3d1a6e76
bcbcdbbe
bd242f1f
bd009b30
bd3cce1c
3d5b4784
bcf8f25a
3d036977
b82ee2bd
3c6b6391
3d4b6fa0
3d302603
3d3405f7
3d72c1f4
bd196638
3d1434a0
ba330cb2
3ce2f599
3c8deb10
b8bc9731
3cbf0564
bce2cdc0
bcce5711
bd19d020
bc4ebfec
3c45197a
3d217c1c
bd01d4b7
3c248733
3c8c1334
3d269271
3cfac81d
3d003148
bcf4cd31
bd2cc815
3d21ef74
3d7a13c2
bd1208e1
bb2459e7
bbabda0e
3d3790fb
3d90fcf8
bba92e62
bc7f4ba5
bc33636f
3d329d41
3d0882f1
3bd80362
bd2a3593
3b94d940
3d092ee8
3b8fc0d3
bd463cfb
3d68b4c0
bd29a0ae
3d58255b
bc7d1dcd
bd2c28b3
3d6c15d3
3d6514c2
bcb27675
bce46ae4
3cf13ad6
bcfadafd
bcac53b1
3c31e9f2
3d513837
bd423960
3c852b4e
bd586877
bc8405b4
bd46ed24
bcd9cf14
bd254f7b
3d826b2f
bd1a8cdf
3cd65a14
3d427525
bc0d9366
bb8c9c5b
3d247779
3cbc5bd1
bd4b380d
bd20c5a8
bc76e3f8
bcf2e8c0
3b15167d
bd18c7e3
bd6ab042
3bf70c3b
3d4aff6d
bd075e63
3d235d68
bd3aeff6
3cf93ff2
3cd7518b
3c1f255f
3d0e6c09
3d13c686
bd58d9b6
3c9bb060
bd1f394b
3d119ef9
bc2e429e
bd6b367a
3cb5d24a
3ccaea74
bcb87df6
bceae18b
bcaf6838
bd16e371
bd3c04c9
3d198e11
3c61da7b
3b96fd07
3cfbb949
bc2b81f9
3cba96d5
3d46583f
3d233051
bd5479d5
bd57b741
3d82e44b
3c9b0681
bd2e0b0b
3cb5b2d5
bd34e54f
bd2e04c0
bca4638d
bd50b524
3cc4113c
bbca8d57
bc8e0a85
3ba1d0a0
bd0f2f12
3ccd3177
bd184c27
bc89fa55
bd4c4ef9
3baf60ab
3c99b2c4
3d34d595
3c787f02
3d14db59
3b9ea140
bc50e560
bca8a3f9
bd575d14
bd1b5632
3d3aafff
bc2df2ed
3c162cfe
bca5e13b
bd708bb9
bd4febd1
3d4b5ed9
3d0203e6
3d1f4c2b
bcfe21d9
bd14bdfd
3b9c3124
3d2ce67d
bc90a351
3baa623f
3d162bf1
bcb59147
bd015f46
3d33311a
bc55629e
bd728416
3bf935e1
bd0b6fa0
3b2f55c4
ba9d2469
bd629521
bca48d7e
3d06a3be
bcca7504
bd02070c
3c0a5482
3c89289e
bca26c3c
3b432f95
3cf2f556
3ce1c582
3c181edb
bd3925bb
3d0e7579
3cf5579b
bce9899c
3d0a58b4
3c6978d5
3d0bbb1f
bcb1f46f
3d1bee3d
bd2e7925
3bb71c61
bce1fc09
3d705b7d
bcae4b02
3c39841b
3a628820
bd7f1737
3d61272d
3d27d780
3cf34d6a
3d6618ce
bc125c23
bd76b1a3
ba51a44d
bd3f0564
3d647ed0
bd4344c3
3a12d1a9
bc9dfb94
3d472d1b
3cc91f2e
bc7e542e
3d8249a1
bd4ce704
3cfa743a
3d47aaef
bc144b7c
bd32e276
3d2dd8b6
3ba6dfd3
bd354b06
bc11df26
3d2500d6
bd36683c
3c5512ec
3c9b8024
3c6bbba5
bcebc1f0
3cf47736
bbe4a531
bc8e0221
bc851a87
3c8bae8a
bc0c7707
3c1bbfe5
ba2b443c
bc689a89
3cc297c0
bc10de09
3d0f7447
3c9f6018
bd506bbe
3d58a761
bcd39325
bd1f8099
3d68f29d
3d6964e9
bc6fd439
bd3c6003
3d0d0edc
3d564734
bc69dd7f
3d40713f
bcfb267c
3d294ab2
bd276b7f
bd19902a
3cf0a5f0
3d319b4e
bd083772
3d23ad19
3d129ed4
bc8b3919
bd49acbd
3d015098
3d3395c4
bd1f88fd
bcc534bd
3b75f4e4
3cbc9258
3d176ab6
3d2eafab
bc052ea9
3d2ccc47
bd06088d
bd644418
3c2cffa8
3c194185
3d602214
3d57a56e
bd80a30e
3cc26784
3d591794
bd4dfaca
bc63e293
bd5c8da0
bc2d14a1
3cdc67e0
bd6429e1
bd860fe4
bd5f98b7
392f4d0a
bc5377e2
3d77164c
bd186ca9
3d49abb0
bc9ae4f3
3ceb0963
3c653eb4
3d2c0f88
3d6a593a
3d352daa
3d70c77e
3d817b0f
bce18266
3ceffe2a
bcabc2fc
bd6b399f
bc9dcb58
3d32c626
bd30c34c
3d08eef2
3ce2e6eb
bd4c9646
bce965f5
bcdb50f4
bd6415f4
bb888575
bd66277c
bcb163bb
bc95a07b
bd2b54e3
bc66fb4c
bd3bb83d
bd4cdd94
3bd29995
3d5b456b
bcd4e4c9
3c905c03
bcd612c7
bc711f92
3d448f11
3cbed0f6
bab11e1b
3af0f678
bc8079a3
bc7fc116
3d129aa2
3ce6ea85
3c93b3a7
bce33acd
3c84f095
3d6d43d0
3cc36977
bd37867f
3c90b1ff
3bb713fe
3c0f2750
3c84ba0f
bcabcb60
bd52e515
3d49b952
bd56312f
bc94488c
3bb3b3f7
3d414c66
3b2abc01
3cf7d30b
3c629b6b
bc7b19e7
3d2979e1
bd66f502
bb1e9c38
3d59ccfb
bd0b5dcc
3d6e3b47
bd64ead1
3d61a501
bd200b03
bcfda837
bd1e59f3
bc699e95
bc5334c6
3d5e5d18
bb067c86
bc10ff2c
3d3dfa01
bcfb6fe3
bcfff36b
3ca0e842
3d284168
3d1bb59e
bcf39b02
3c05681f
bce80171
3d3aba7c
bc4a46e1
bbe8b992
bc72becf
bc60e304
bd1a8cdf
3d27d135
3c8c2c5e
bc31d0c8
bd422574
3d37b9e0
3ceb0532
3d6d3e92
3d513a50
b91dea61
3d204af9
bd27e847
bcb584b2
3d6bcd79
bc4471b4
3d095076
3b355ef2
3c8ab4fa
3ccdf480
bcf46aa1
bd735b0c
bd64ae00
bd1b7f17
3cef8488
bd11d8a5
bcd9d990
3d3e4de4
3d546d40
3cab7dc8
3d671ef3
bcaa4980
3d8605ee
3cbf290b
3d401712
bbd68fc4
bd058256
3d2cd291
bc723465
bd40a17b
3d52a950
bb230553
bcffe8ee
3a75319b
bd5e939f
3d07d3d4
bd26277c
3d6187a5
3cab430f
bc1ad355
bc43dab6
bcb0ee4a
3b88da2f
3c8c7c0f
bd669ad4
bd44fd2a
3d1d4d83
3d3ff25e
3d464990
bd818c5d
3c99a848
bd09dae0
bcddb984
bc7969e4
3cd77b7c
3d3f38c5
3d52b4d9
bbaff7aa
bd4d6b23
3bb37c9a
bd195897
bd198aec
bd4d20b0
3d05b7d0
3c2a79bc
3d6d71f3
3d6136e7
3cdcb35f
3cd3f184
bcd4f15e
bd3d0e13
bd59da9d
3c98fe69
bc83d578
bc45931d
3b48aa28
3c68af81
3d25c704
3d6efd44
3d50edc4
3ca960b7
bcf54f37
bc044b54
bc2f20ea
bc80a394
bb089dc9
bbdcbeb2
3d1e3a7e
3d0d5736
bcf4b620
3d5f02c5
3d48ace2
3d094813
bd5edbf9
bd5dbca9
bd3f10ed
3b76bc8a
395b371e
3cac2374
3d612f90
3cf574f7
3be3666c
bd494b38
bcafe3f3
3b33c3e7
bd390a78
3cb6bd2b
bc60c9da
3c11b097
bb8dc479
bc32aae3
3d05ae60
3c8d1959
bc5c26dd
bcbcba30
bc2b25b3
3c9a133c
3d4d7386
b8942965
3d1702e6
bba5ca2a
3cea3df7
bd18a43c
bcca4096
3d3316e3
bd49de05
bb60f726
bc2d1d04
3d2ac322
bd57a461
3aed2cbf
3d2939eb
3c9a3f46
bd08d4bb
bbb366ca
bca847b2
3c650c5f
3bd51b50
3d4795f6
bcf6837f
3c70b285
b931e6c2
3d140464
bd3b9bed
3d18127b
bd408d8f
3d0b73d2
3b89232a
bd483ba3
3cafbc1b
3d638a7e
3c953155
3bb96008
3bda0dfe
bd6a93f3
3ce1cde6
bcac7970
3d7ceb79
38df992d
bcf8d717
3bdb3545
3d1fff7a
bd2c6477
bd33c70d
bd243aa8
bd33ade2
bd266fd6
3ca469d7
bd3fa5d3
ba373b15
bd3353b5
3c1f47c4
3c11cfa1
bcac7b89
3b34c2eb
3cf98d8b
3c116151
3cf18223
3cf71c97
bd5b0681
3d31e5c1
3d50b73d
3d29d302
3d81615f
b93fd395
bcaf294e
3d392f2b
3d5856a3
3d07db2b
bc02f2fa
3ba1031a
3c7eef5f
bb62d39f
3d31758e
3bf55c38
bb23b3cf
3b4319c6
bcb50093
bcef30a5
3ce2e0a0
bb674bd4
bccb89d7
3d06a7f0
3d5f71eb
bcea4229
bd0a1598
3c6d6345
3cae2b8c
bb11d4a9
3c899392
bafb8a4f
3afd7aeb
3beae841
3d24e26d
3cc19e30
bc321c47
3d14434e
3d5b62c7
bd0c08b7
bb4e58be
3cc38b05
3cfec99f
3c89c5e7
3ca78af4
bd03eb7d
bd32788e
3d257fb7
bd48d6d4
bc15e402
3cda7b0b
3cc6a3be
bc649f51
3d3419e3
bc9f03d1
bca7c5ac
3bd9d925
3d06ad2e
3cda426c
bc9b4352
bd2555c5
bd44f3ba
baaa9a73
bd62c55d
bc1030d0
bd130ced
bcf0153c
3d2fbb0e
bd69fbe7
3c295422
3c5ac259
bd0a5ce6
bc6132b5
bca1f299
3a2eeb10
bcccd530
3c0b4685
bcf55369
3d4795f6
3d14067d
bc8e7360
3d391b3f
bd5c6195
bba7daa5
3d1694cd
b9c49cfd
3d1d5f57
bcb3d8e0
bd0d1fa3
3d62834d
bb05f7fc
3b808c82
3d17c0b1
3d4de3b9
bb1af915
bd31012a
bd2e19b9
bd2fa0d7
3be3c2b3
bcef7c24
3d1e1199
bc34dcec
bd4b5aa7
bd3da512
3c9bf9c6
bd2cb535
bc520afa
bcb632c2
bc3502ac
3a0148c0
3d80852b
bd14b168
bd048cf8
3c9ef0f1
bc3d449a
3c172c01
bd1e41d5
3cea7ce1
bd58d8a9
bc995897
3d20b1bc
3cddd096
3c92cade
3d59a1fd
bd21c476
3d5c7582
bbcf6888
3d83369c
bc977857
3d8f4adc
bd1a1db8
3d4ed2cc
bd2833c6
bcd594f2
bd6ddce8
bcffb481
3d699631
3c6c3dab
bd2a8a83
3c17a751
3baaa200
bbc3ce21
bb822432
39592bab
3c2a1d75
3d48b75f
bd362e90
bcb52221
3ae47560
bd743c7d
3d2f8ceb
bb251421
bd4e831b
b9ca53f7
bc8f7553
bc0add3e
3d8556d2
3d874d16
3d965c2d
bc82a77a
3bcaa906
bd00767d
3c75a965
bd422036
3c347c74
3d4dd1e5
bc0c210b
bd01b21c
bccf13cf
3d13c03c
bbf68456
bbf09d8c
bc3dba0a
bd129132
3d660d45
bba15db3
3d45bf27
3d6324c8
3d0b3e57
3c6f5233
bc2faf86
bab1da02
3c93e5fb
3cc0895d
3c05e07f
3d32c732
bd4f3238
bd50e454
3d33e682
3cbf9e7c
3d72799a
bd1157ac
bd4f6167
bd23f898
3ca85879
bd4f6dfc
3d415e39
bd13c46e
3d0b46bb
bbf88b97
bce2da55
3d6eb5f6
bbce6b32
bcbcdbbe
bd737c9a
3d822920
3d5949e9
3d5960fa
bc2704bc
3d727350
bd155a3a
3cd95140
bd068cac
3d44039b
bd0942d5
bcfc19c1
bc9c4fc2
3d19da9d
3d3bd6a6
bc2eea64
bd3b5393
bd16e371
bd3487fd
3d22ac32
bcba0c6b
3c936827
3d0d7492
3c5d590c
3c865300
bc82eec8
bd137c13
3d7020c5
bcb22af5
bcdd15f0
3c26e32e
3c8537e3
3d82bf98
3c801f75
3d865cf6
bd011905
bd1d1b2e
3d2615a9
bcaaa9f8
bab06c44
bc54bad8
bcff1d82
3c5d7236
3d59dece
3d29f490
3bfce670
3d418e75
3d147ae1
bcf76c48
bd60a201
3cfab10c
3d4bc59c
3c673605
3d0b599b
bd315619
3cc141ea
3d0ac9f3
3c4575c0
bce8b7e5
3d3d8277
bd6122fb
3cc31594
3d04028e
bb11f12f
bd425f20
bd40a9df
3c9f4906
bd45e5f3
3d49656f
bb8d16d4
3d62b6ae
3c262aa2
bc66f2e9
3c0adaba
bd524d0a
3bfac52e
3d7fe9fb
3cce9a2c
3b1fb10b
bd57d285
bd3eb5b3
bd8049ed
3c593815
bd0ffda4
3cb74795
3d0da2b6
3d078a6e
bce6c094
3bf85a19
bd40a287
bc72ba9d
3b8b7bca
bd288ce7
3ce0e0eb
3bd1cb39
bd650b52
3ce924f2
bcac55c9
bd690de1
bc64fb98
3d398c7e
3c1af83e
3d756ead
bc09e41a
3b97c9b6
bc975afb
bd0a569b
bd35f80a
bcd0ebab
bd124bfd
3cabead5
3c434c1b
bbe89580
3d569d30
3cc2d491
bd742678
3d6edcc2
3d163ed1
bd49aed5
3d3a12b6
3d59945b
bcd2e947
3d5a4591
bd192967
bcf55582
bbf11581
3d527e52
3c811905
3d3f2a17
3cc29bf1
bd4940bc
bbdcc8c3
3d357c4e
3c278f26
bbe670e3
3d3d1245
bd1819d2
3c8f2171
3c9146e5
3bc83233
3cd09396
bc46540d
bd5b7cfe
3d3402d1
3d536a40
3c2a1944
3c48ffb9
bc2a0cae
3d1bfceb
bcce9814
bb3eb258
3d0b0e1b
3d6e221d
bd1b5e96
bd53b18e
bd6833c6
bcdc5d64
3d758f2e
3d031bdf
3cd538ac
bd2d01c1
bd64e69f
3d2aee20
bc89bf9c
bd72d5e0
bc96d8f5
3d454ac3
3d2a6d26
bca862f6
3d31758e
bc9eabbd
3cf5946c
3d5f02c5
3cceebf6
bd8657b8
bcc92ff5
3d0fc611
3bc829d0
bcf27fe5
bc39c737
bb4402fa
3c9a5871
bc9d1f60
bc5013a9
3d4d4456
bd3457c1
3d2f459e
3d617b0f
bd14a2ba
bd0a5050
bd1f676f
bccf7caa
3d116766
bcfeed46
3d611127
3d6dab9f
bd15592e
3d61e604
bd693e1d
bbd0833b
3ca01eef
bd52977d
bd52d44e
bc6dd8b6
bb9713ad
bd66c2ad
3d68bc17
3d4e9d52
bccbff47
ba6eedb4
3a32f890
bd30f063
bd84912a
bcf6d549
bd4576cd
bd04c9c9
3b5878d2
3cd1d042
bbd63d8f
bcdfeb8e
bcf340d5
3c611dbd
bd4b6e93
3cd2007e
bcd66adb
3c282e88
bd41f213
bcf7963a
3c697072
bd4e11dc
bc8f12c2
3c00b095
3d1dfeb9
3d1f97ab
3d397dd0
3a043f14
3d792f2b
bc6bd09e
3cc90a35
3d2c1e36
bd561805
3cf5e636
bd3ad8e4
bcfe6f72
3a5165e4
bd3c8191
bc916ca4
3d21f18d
bab05822
bc7a7222
3cc4e50c
bbb90570
3d62fdfc
3bd45c0d
3d4f2cf9
bc832336
bd260914
bca684cf
3ce11fd6
3d4d130e
b98d8813
bcb5d895
bd4c0592
3d770479
bd0ab820
3cdb3e14
3cb1feeb
3cef77f2
bd2bb667
3cd6ece1
bd4d51f8
bd237bd0
3c92cf10
bc89dcf9
bba40025
3d00a394
bccaa971
3d040f24
3c12d631
3d28d10f
bc8ab92c
bd369121
bd0ac8e7
3d195bbc
bce62fe0
3c541744
3cd8a548
bbeae18b
bc883340
3bdd532d
3d3de508
bd3bba56
3d13c57a
3c7f865d
bce7cf1c
3d1029ae
bd490929
3c85ad54
bce7a52b
bd4a936c
3d51dde3
bd35a533
3d0026cc
bd23a4b5
bd195140
3d5183b6
bca37ac4
3d469f8c
3d1a5658
3d3fdd66
3d802f30
bc9f2346
3b17ad30
3cba53b9
3c0d5843
3cb573eb
3ba7ac82
3b5f464c
3d16ba8c
bd2d03da
3d16bdb2
bbe6347d
38cbec41
3c86ee31
bcb3ca32
3d401605
3d6a6d26
3d5d96ea
3d411b1e
3cb0f063
3d75aa71
bcf7a2cf
3cdb4246
3d45f395
3d638434
bd0f8833
3d437d63
3d22f9ca
bb8c94ce
3d69d51b
bbaedf7c
3d143d04
3d6b1a2a
3bdab91f
bbcbca6e
bc51287c
3c65e679
bd742dcf
bd0f6167
bb855b1e
3d40d1b7
3ccfaace
bd7165d4
3d3f3e03
3d47d0af
3d030a0b
bbafc04d
3c797247
3d22ab26
3d407aaf
3d5ef523
bd0eb13e
3c053ad2
bd638da4
bd2a7ce1
3cfe5860
bcd3b29a
3d20ddc6
3c9a8049
3d620ee9
3c9389b5
bd3cd680
b93221d1
bd350c1c
bd5594f2
bafc9a1a
3d332053
bc5cd2d4
bd203600
3b168944
3c906cca
bd0be942
bd2dc6e3
3c7138bd
bd1d798e
3d3fe5c9
bd529457
3cbf3beb
3ccf4624
bd10257d
bd376a2f
bc45436c
3d0d1202
3d2caeea
3d6706d5
bd0204f3
3c843a21
3c433f85
bd084a51
3ca43351
3d8a21a7
3d631833
3c4a3e7d
ba0eba18
3d438195
3b5de0f1
3d203a32
bc827957
bd179f23
bc99dece
bc60d23d
ba928d36
3d064cb6
bb138228
3c4e746d
bd4169c2
bd438f36
bd09d7ba
bd469510
3b50b666
3cd5fbb5
bd542f62
bc6a4ebe
3b5b819b
bbf8cb58
3ce1aa3f
bb801564
3d4636b1
bb81ab66
3cb69985
b96664a3
bd524f22
3d27674d
3d30a0b2
3c866a12
bd0e8a72
3d75696e
bd0d099e
3d096aad
3bb8ff90
bd4094e6
bb6d783e
bd48bb90
bd27dbb1
bcf56ead
bd60ae97
3c177c89
bd6075f7
3cb9e6ac
bd3ad6cb
bd5bd2fa
bb76d0ac
bd21a826
3cf87486
3be87e03
bd63cb81
3d08c826
3be66b04
3bd8e6b7
3d07b353
3d44fa05
bd15cc85
3cb74de0
bc943bf7
bcdb8fde
bd27a744
bce0bf5d
bd215875
3cfe974a
3d5a7f3d
bcf4ea8e
3c3a9d1f
bb18ebf5
bd03a216
3d1103c9
bc38ae32
bcc4651f
bd3b762e
bd54b8bf
bd66f827
3ce5f527
3d23d1cc
bcba7115
3b2ceaaf
3ceaec07
bd04cf07
bca1c25d
bd1b65ed
bd6704bc
bd363a19
bd318549
3ce91ea8
bd3a11a9
3c654717
3bdba5ae
3d32d1af
bd215ec0
bce8f084
bd0ceb35
bce34763
3d2dc6e3
bd61eb42
3c5e43ee
3c1d3961
bd00b88d
3c31140a
bd3ae03b
bd29057d
bd3137b0
bd02ecaf
3d1c0b9a
bd23ee1c
bd309e99
3d5efd87
bd5ae0c1
3d4945fa
bccd76ab
3cf62b6b
bc0aa8d0
bceeefa2
3d563455
3badc16f
3c010767
3c8d2e51
bd274d16
bd51105e
3d515593
3938dfdb
3d0332f0
3cbec02f
3d05bd0e
3d697072
bce7685a
bd3fc43b
bce8dfbd
bcbe9c88
3cc33b54
bd1a6d6a
bc3dfd26
bbb8ae32
bd4dd723
3d661390
3c6236c1
3d1d93c4
bd40639d
3cb69985
3c15a808
3d294574
3d7bd05b
3d030f49
3d1ad85e
3c8691ea
bc97a249
3cd98394
3c7aacda
bd60e736
bcac0a4a
bd0e13f5
ba555938
3d69424e
3d69c23b
3be3ee52
3bdb55fd
3d448e04
bd53a3ec
3c172332
bcce4c94
3c8919f0
bb2c9bd5
bc9d9b1b
3d3a55d2
3bf7da98
bcf77293
