bd30f27c
3d24a8c1
bd26b50b
3d85f06f
3d1fbe77
3c84b5dd
3d13dd98
3cfd21ff
3ca64c30
bc9c779a
bd230553
3cd4fdf4
3d71a9fc
bd2e147b
3ccd9e84
bd3c6a7f
3b09a027
bc47e282
bd855326
3d2fb7e9
bd158106
bcd288ce
bd1ad42c
3cd91687
3d20902e
3d3c01a3
3d130be1
3cfb7e91
bd86594b
3bf27bb3
3b3e0ded
bbebedfa
3c4985f0
bd84816f
3d706f69
bd0240b8
3d669ad4
3d17f62b
bc30f27c
bc16bb99
3b3e0ded
bce631f9
bd0793de
bd463f14
3ccccccd
bce56042
bc42f838
bd31c433
bce48e8a
3d4710cb
bd63bcd3
bb23d70a
bd116873
bcd844d0
3c20902e
baded289
3c0ce704
bc5013a9
3d6b851f
bc20902e
3d00346e
bd292a30
3d35dcc6
bd06c227
